BCA08236
BDE0C38A
3C2AEBC8
BE1A77DE
BCD0198A
3D80CDDA
BE28C33B
BD7042A0
3D55A9B4
BD0805A8
3C1702BE
3DC98D3F
BE039FF0
BE2EF8CF
BE031D28
3CC02E52
BCC496A1
BDAADFBF
BDE39E44
BD60BAA3
BE35AD08
3E0B8F42
BE2EC61B
3DA802BA
BDF8F2FA
3D79A773
BE02BBB9
BDDCC137
3C8FA1AF
3D6C70C9
BE119599
3CB1D563
BE37E736
3C3CE899
BDB5818A
3D166DBA
BDE9A069
3C3FEBE6
3E0A20CF
3CE4BE9B
BE347797
BC2152CA
BE0DB1BD
3D452B7E
3C751939
3DC3C205
BDC46430
3E023359
BD8C1C8A
5DE56CA5
3DB94CF7
3E4529C2
BDC77DD1
2EDEE068
3E0DF28E
BDE6D568
BE130A19
3DFA1ADC
3D0BE50F
3DFEAA54
BE039C4B
BE0A48B3
3E12D2E5
3DA0610A
3DE94611
BDE04607
3E0E4791
3E2F34DE
BDC66CCB
3C010E6E
3CF7CA91
BCA60F7E
3E11FB95
3DD1BFCE
BE3DFD5F
5DE6A1E3
3D25C832
3C7CA91E
075C2025
BE09D94E
BE3AFF82
BD66047F
3E23A52F
BDEFE57F
3E05CC0A
BE22EA1F
BD5F7B87
BC90BE29
BE0D5791
BE4E7DA5
3DA70502
3DA69BBF
BE36C0A0
3DB2258A
3DF55F2C
3DF2AC1B
3E3E0249
BC1D1D14
BE09AD6E
BD020C3A
3E246D18
3E3494F0
3E1EEFE7
3C5C2798
BD694718
3CFAA702
BD5ABA7E
3CFCDBCE
3C39AE4E
BE18A1F9
3DC12B03
3C74AF3F
3CD295AF
3E2BC751
3C556B92
3DF40AF8
BE136595
3DA773BB
BD839A33
3E41F082
BCDB1BFA
BE270959
BE2116A5
3D316E50
BE330855
BE11437E
3E25C0EB
3E36E996
3D932474
3DE28BB6
BE266430
3E0FF7FA
3CE3DE2B
3E45E1C7
3E0ED87B
BD8D20AB
3E1DC518
BDD60695
BE1ABFA3
BDD8819B
3DD06C45
BDA5AE43
BD604D4A
BCBD6620
BE0342B2
BD9A38ED
3D7D0A92
3DDCFC73
BD3BC696
BC782D93
BDB350F7
BE215454
BDF59A29
3E1DFFC7
3DD878CB
3D80ABB9
3D8342C4
BD8C69AC
BD8D6314
BE0C8802
BE118F26
BD8606FC
BD4882A3
BDCFC971
3D869497
BE15FF65
BDE73DB4
BE5A3DA5
BDB0EC6F
3C3169C4
BE18DA42
BDB5F3B1
BE1F0D86
3DE40297
BD0E1D7B
3D05A38A
BE1B09C4
BDCE8E9F
3DBC87EF
3E3BB3B1
BCD91135
3D257895
BDD91399
BE0AC54C
BC21FD5C
BD7EA749
BD874441
3E1B707F
3E12BC5C
3DEDFDBF
BD86AAA9
3CC2B1FA
BDFD2245
3DE8FA6B
3D4C65FC
3D1A563C
3D07E61C
3DA962D9
BDDE6047
BD9FC3F3
3DF6CEBC
3D5F6B47
BDFE7892
BD4C4483
3CDEFBEE
3DFB5479
3E2B66FB
BD1868EE
BE15A51B
3D4A279E
BE2F8154
5DF50CED
BD935CD1
3D9F7712
BC6FEDDB
3E22AA62
BE14848C
BC79A499
BDD8E764
BCC45602
2ED571CB
3D69FDD7
3D678D88
BDAC3476
BE025A5E
3C4D1393
BE2D298E
3DFE84CE
3DEAB054
BE0617E0
BDE4AE6B
BDD71934
BC12A24B
3DFFAEB2
BCB54153
3D04A26A
BD85EC9A
BDDA8F7D
BDDD68C2
BDD390FD
3CD69007
BE331E25
BE3095F2
5DCDA87F
BD21360E
BD4B46B0
BD20611B
3D3B87BA
3D345EDA
BDC0F657
BE027C90
BD3323A3
BD42ABB8
BE4E54DC
3E17E4B1
3DEB55C7
BE22F92B
3E4B94F7
5DCF7B5A
BC33D3C6
3E1B9C27
3E2385B8
BD8A4AF2
3E595F72
BDE2DBC8
BDA5B147
3D7F6690
BDF177FD
3D9B3169
BD8C58B7
BCBF2BEB
BDAAAEB4
3E16DC18
BC332E5D
3D193565
BCBEDDEF
3E11C11D
3DC8C79F
BCD04243
3E125D6A
3DA74117
3D4C32E8
BCE50C21
3C3C0F2D
BDFF527B
3DDC573F
3E0B0DCA
BE4DC0DE
3D9DE346
BE2B4D3A
3CDD6693
3DCA9F6B
3DA4147F
3D8E38FE
3E02A274
BE196C62
5DDC69A3
BE12E534
3E2541CF
BDD0AC96
BD664524
3D913572
BCEB4129
BCBDD571
3E018A87
3DEC1B88
1DE96D0F
3DE62400
BCF40062
BDF196A5
3D94A986
3DE14F1A
BDAC2089
0EC7E584
BE19E70D
3D7C74CB
3DC76A68
3DAB8DE4
BD97F024
BC70E9A9
3CF83DC1
BD14816E
BE3C79DE
BE1C28AB
BD8C9654
3D2FEAC0
3CFD15DE
3E5ED3CF
BE09C19B
BD2C315B
3DF14ED2
3D9BF5F7
BD3EEC3B
3DB496C7
3E292C56
3E24BFA7
BDC0B250
3CFF8FB4
BE5AA3C9
BC7D7CAB
3E32E6DA
3D914F83
BDB0FC19
3D48E967
3D6C3E09
BC7F580A
3E487F14
BE29BA27
BD276C38
3DFA9870
3E3ADACD
3D51FC6F
3DCE3CAB
3DB8E6A6
3DCADC52
BE145DBC
BE10CD3C
3C9A64CB
3E138F7B
3E10CF19
BDFC29CA
BD919ADA
1DCD5619
BD1089E1
3E24033D
1DEA5A39
3DB56BE5
BDD74D69
BDAA4D21
3DB6508E
3E5D1226
3CE420B6
BE07CA4E
3C95063A
BE447997
BCFEBD0E
3D66EC80
3DB2589A
3D03833E
3C9C8B48
3D546EE7
BD555507
3E07B144
3E2591A5
3DD00FAF
BE2A1E44
3E33C1F8
BD64F14F
3C8CBACD
3E2C9806
BDA183DA
3E01CAFF
BE41B32B
BE1DC10E
3E4F5F8B
41000002
BE3BCC0F
BE207FB1
3D103232
BDBB406E
3E0AE24E
3E0CAF22
5CE82CE
3E2E2F65
3D3DB33F
3C050230
BD4610F1
BDABA34E
3DF1D6CC
3E24F734
3D736828
3D0B5175
3DA5D6FE
3E10616F
BD5C4DDC
BDB46A73
BCCDC084
3CF6349D
3E4D9BA7
BD9D90ED
3CD2AC59
BE5731D0
BE496DC4
BCE312BE
BDDE5AE7
3DFC7F9E
BD23A07B
3E08952F
BDA71E3F
3DC07BAC
BD277C2D
3DD561ED
BC1CA662
BE0E7330
1DE00957
3DD6B9BF
3CE84D35
BCA9493C
3E2AC07F
3D54BBC3
BD55A1B7
BD43DE00
BDFD44A9
BE0E1BF9
BE6E5BD1
3D5CDA3C
3D6DE7BB
BD537EB0
3D960339
BE12F89B
BDB55FCA
BD84F135
BE375BEF
3DAC6295
BD9E3239
3E3B9C2F
BE290C00
3E3EB466
BD3419D6
BC257203
BE0CD800
3D8606DE
BC8DE3D7
3CB40D04
BD053303
3E2E0495
BDED5D06
3DB6261A
3C3B6F2A
BC889315
1DD3FF99
3E2D9817
BD80A54A
BD91B6E5
BDA14A4A
BCD19CAA
BE30C24E
BCD4C80B
3E3D97D1
3CDF4884
3DB3BE88
BD8B099C
BD994093
3DD61DC8
3E292C53
3E32A15A
BE317AC6
BDF04F65
BE1095C1
3E35BEEB
3D7A6DDC
0EC6AB7F
3D9737BA
BD945642
BE4A9280
3D9C7441
3E3A5624
3E0E15F5
3DE9530C
3E152742
3C0E6C15
BE15C6EA
1DDD4B47
BE453B8C
BE282D3F
BDCED737
BD5B9629
3E0D3391
BDBFE97D
BD651816
3E062AB8
BE17974B
5DC02474
3D6ECDD8
3E0DA2CB
BD582FE5
BDCD2C90
3D57C5B2
3E374FCB
BDE030F8
5DDF95B1
BCDEE10E
BE0D2FDB
3E2276E5
3E0AFD0B
3DECF491
3E0CAD32
BD83BAB2
3D710D4A
BC12A7D1
3E0A54C3
3E105DD3
3D00AAF4
3D9E1B0C
3E226C88
3E0DD99F
3DCE277C
BD0903C9
BD95CFA2
3D95C7D1
BDDB2001
3CB046DE
BDA0FB4B
3DF98BEE
3D27AF01
3E2582EA
3E4862BF
BD80D581
3D39BF60
3DFA0060
BD81DAF5
3D17AC46
3E12248F
BDD39B2B
BCC2209E
3E061320
3CD8C458
3E112B72
BE2B8257
3E4CA1E6
BDDC7368
BE10625F
BDB90BA2
3D56776F
BDF2A79B
BDD973E1
BD8C9918
3D4B6E3F
3E1699A7
3E0129BE
3E1D83DF
BE0EAF7A
BE145D07
BE2C7342
BE0940A1
3E1048AF
3D1305AB
BE033F0A
3E40F420
3D970CEC
BD018175
BD11010B
3E02D430
3C72B7D4
3E34086E
3D0C0C84
BC862B1B
3D795792
BDAC11FE
BDC2A0B5
3C5DFDD5
BD939012
3D8B2A67
BDB9EDC8
3D98C923
3DE6A021
BA38A71
3D269507
BD8A4095
BE436E0F
BDF6596C
BD0D290B
BE13A605
3D7D6966
BC18A761
3C80E772
3D69529C
BE3C14BD
3D018C54
BDF0100A
3D17E2A7
BE2319DC
BE19B35A
BDFD7850
BC9F64A0
3C8B888D
3E4C9C08
3D961A42
3E022FA4
BC830431
3E39E851
3C956BCC
3D7567BA
BD810336
BE167943
3E068A32
BDBE582F
C0C00005
3DAF59CF
BDFA1A7E
3DA2A2BC
BDDDF0F3
BDB75F7E
3D2F047E
3DC601AB
BDC16B9A
3E4ABD1C
BDE42064
3DE51780
3DD8A2FB
0ED611DB
3DB40885
BE070FAD
BDC92C57
BD35ABDE
3E071620
3DE8BA09
3DC625BD
3D85D358
BD3A024C
BE123DC3
BC775F6E
3DA6E843
3D441CFA
BD50F8F2
1DCEAA2D
BDEA4CA2
BD77B2A2
3E03F4EB
BE3E331E
BE24665C
BD7FEBA9
3E1DCE8F
BDE93C09
BD6FFF94
BE1F566C
BE258BA5
3DE7321A
BE066A4C
BC960F95
3E0E2170
3E00EF5C
3E0ED622
BDC29ADC
3CF18656
3DA45BED
BD373177
BD64223D
BDE7EABA
BD40C530
BD525D3E
3C8846B8
BDA06CDE
3E1BB553
3D235A9A
3DC7DD11
BC69B6C8
BD167331
BDFC131D
BD86E9EA
BD341EA7
BDD10034
BD546A4E
3E08C72A
BDB98B7A
3E04D119
BD33448B
BE13B508
BDE7B206
BE020E9B
BD9F9104
BD941B46
3E1045C8
BD9D9B7A
3DD541EE
BC370CF7
3D36EBD5
BD24DA95
BD7CB973
BCED1729
3D9A557A
3D8EFE57
3C43E5C9
3DAFCD21
3E29881D
BDF23FE6
3A62544
3E18C5B0
3DA73433
BE14D104
3DADFC9F
BD7E4CC3
BC7FE0CD
3D556EB1
BD819CD9
3CA6C0B8
3CE67882
BE08BFE7
3D9E5BDB
3DBDD3B3
3C36CCDD
3DDDADB8
BDAD0423
BE0E2D03
BE358E66
BE0A9114
3DDF9F5E
BDBA2CE0
3D74DA1E
BD6AA29E
3E040391
BD885375
3C618546
BCA34F02
3E0904D7
BE02DF99
BC2D4911
3E253842
BE16B7E5
BD12301E
3E09AEA7
3D453A56
3DDA6CE1
3E074C46
3C8C48DD
5DEE7B2F
BDE8CBC7
BC51B88C
3E3F688B
BE204223
BDE322AD
3E21EB89
BE1D5E99
BD075D88
3D0E8571
BE49CD09
BC28A1AB
BE187394
3D84DC9F
3D10CD91
BE1BA613
BE274813
BE3E7C18
3E214454
BE0E3E13
3D93D33B
3DF9DD33
3CD1C2CE
2ECE7786
3D34C82F
3DF975B6
BE34AF41
3E0C604B
3E063D6E
BD85AF14
BCEA3CEF
3D95821D
BE1DE9DE
3E017CE5
BE1B304D
3D72CAD4
075EE54A
BDF80A9A
3E0AC740
3E235D70
BE0BC36C
BDFBBD56
0751CD32
BE265F0A
3D612CE2
BD96BB15
3DF9B700
BDB823D2
0ED34892
BDC5C94B
3CB21354
3DF49FE6
3D659599
3E2E0F0C
BDAB9C56
BE2B3655
5DE461BB
3E36FCF2
3DA79EEE
3D3803D1
3DCC587A
3D916A0A
3E2FFAEE
3E0A4AAF
BE298307
BCCF72D8
BCCFBEFB
BDA016B8
3DB9ED8C
BDAD0D56
BE07D2E3
BD56A391
BE150CE3
BDC405F2
BD9DC9B0
BE466251
BD12D5E1
BD4DDFC9
BE0677CD
3D01E397
3C70B27E
3E23624B
3CC50879
3E113997
3E14E112
3CD3A409
BE32A6D5
3CBB24A4
5DEDF0EF
3E2FD1B5
3E09AC98
BDEA6835
3DBCD08C
BDE1AEF7
3E2C1375
3DE02235
BA09898
3D969263
5DD74CBE
3DF89042
3E05B4BF
BE403143
BDBB7ABC
3D4580EA
3D38546C
3DB658B4
BE22FC06
BD1DAA7E
3DC0719C
BE1DCA84
BC9061BB
3E2C7DAF
BD42EAA7
BDB314F4
3D330C77
3D6B92C5
3D365F4A
3D5F57C9
BE154BE5
3DE8340E
3DB2A5A0
BDA0B468
BD0E8D47
3E19F085
BDBBC6AA
BE04F3FA
BDE23D55
BD991C63
BDFFE811
BD8D69B7
BDEFA37E
3D10CD1A
BA03FCF
3C8FEB9D
BE2693D3
3D0BBBE0
3CAC6C6F
BDC62736
BE1EBE50
BD77E56C
3E19BA5D
BDCD12C0
BD728353
3E3EA6D1
BE1F3CFC
3DB81219
BE1F6376
BDAEE23F
3D8A8529
BDD40859
3C00325C
3E1521B4
BE26AF78
3DBEA753
BD422967
BD3E9D7D
3DF39FD5
BDD72EC1
BD988321
BE112410
BD824909
BC465EF9
3C339911
BD852D70
3D9BB43B
BE0C68D7
5DDEF5AF
3D99B9A8
3E42C8FB
BDA8B932
BE164E54
3E1BEB78
3DCCA7F2
BDE99920
BD86787E
BDFB0DB7
3CB970BE
3DF25C3B
3E14C59F
BDE146C3
BD086755
BD9814A5
BC1FBCB8
3D3D32F2
3D5AE6EE
3E23B863
BDDCBBCB
3DB0702C
BDC4EADA
BD5EF147
BC163A94
3E2C9BB4
BD57D09E
BD555884
3E1A6D2A
3E2C64E1
BE1040D7
3E04FA3D
3E11A685
BDBB7F43
3E1E7227
BE245009
3DD80C50
BE39DEC0
BE2695E0
BE0003CE
BDCDD067
BDCB4131
BDAF2E24
3E454344
3D99E6F5
3E09A786
3D5F6E6B
3D237696
3E0DE141
3DA0862F
3D2FE265
3DF93B4B
BD1E561B
BD5109E2
3D4FDD6A
3CC3E534
BDFF30C6
3E114B84
BE18331B
3D519AA0
3E292C1A
3DC8E751
3C6089ED
3C57F785
BD68D5B1
BD9F809C
3DA599C6
BDFF4CB3
3DABF586
3D617D02
BD8480C3
3E052203
BDCD4037
BD9D4387
1DDC1FD6
3CFABD15
BDCC8B5E
BCE2FC5D
3D3FF59D
BE1ED55E
BD24A12C
BD7CA227
BDC9C487
BD9AF865
1DEB2AA7
BD407DAD
BE2B5DFD
BE423C19
BE15EFF9
3DAEE945
3CC6F640
BCE7E7EE
3CCC8747
3DD5C5F0
BE06258F
BE03CFA9
3E1AEF30
3D238537
3D9454E8
3E0EEB1D
BE19506C
3D8E8252
BCCCC1DA
BDF88BB0
BE2D16FF
BE0F6550
3E389992
BE2C9EC9
3D13A61B
3E193064
3E3C5F08
3E07F16B
BE01F4A8
3E3B7FB0
BDACF720
3E187EE3
3E03D6BA
3D8334C7
BE0CD860
BDF7D707
BE3BCFE0
BE1776BF
3D4E7633
3DCB2076
3D9932EA
3DE184A4
BDD96ADA
3E344DE1
3DA01C78
3E41C6C1
BCDA3BA8
3D1D015F
BDA75EA0
3DD69928
BE107E80
1DCD1983
3DCB78BE
BDC7A4E9
3CD94FF4
BD04996D
3DBC32A0
BD6786C7
175BED83
3CDFA272
BC977458
BD225316
BDF96004
3C8A1F4A
BD77464F
3DB439E4
3D959628
BE19117E
5DD91F10
3E159B8C
BDB66C79
3CD8FDC1
3DD88E1B
BE33ECF8
3C28D557
3CFF992F
3E150D55
BDCCEEEC
3DC55ACE
3D80F2BB
3DBF72ED
BD02568B
BE0A6C3E
3CAB72E4
BD4683FD
BCAA8656
3DDE6863
BE16C0B3
BDAC8A97
3DFB1A2A
3E22DCD8
3E1B3AA8
3D0D3C4B
3DCA07A8
3D5F7E97
3E3A0AFB
3D8271E4
BE1209EA
BE072EFC
BC1588D3
3DDF4399
BE024EDA
3E1FD146
3E01D65A
BE27B2F9
BE28ACF7
BDF3B5A8
BDEF1BD0
3D5B6CFA
3D4C7E5C
3DC3037E
2EC8C282
BE029344
3D1C5149
BE17F8F8
BD229921
3C9718EC
BD9E07B3
5DDC56EF
3CBEAAE5
3D88AFF2
BA7723C
BDB02717
3D97BA8F
BDAC6DEF
3C3BF39B
3E22D35B
BE209D13
3CCD4B35
3DDE8FE2
3DC390BB
BC2923E6
BD8D0300
3CEFAFB2
3DD43E46
3D33EF15
3C06D23F
BDD816E4
BD6B7BA4
3D4521BA
BDCDF9E8
3CDA78DD
3CB0DA64
3DEF9C0A
3DF59F0B
3E01BBA0
3CFC3075
BDA5C6D7
07558301
3E2049B2
BC9108AE
BCE2E279
BC4D2012
3E1F0D58
3DC66FA7
3D8F0020
BE1F116D
BE00DEDD
3C62DCDF
3E0D61F8
3DD19CE1
BDB221AC
3DF7CCEB
BDC33B65
3E040C0B
BDF87A4D
3E00D510
3CAF07CD
3D303444
3E37C270
BE1D5CE3
3DA33A7F
BCC0E7A3
BE069919
BD6388C9
BC8EBDF8
3E2DA444
BE376264
BCDDC426
3E0E50B9
BD2E961F
3CFDA13E
BD6FCE62
3E161008
3DFDAFE2
3D2BBE27
BDB883C1
BDABCF66
3E25F82B
BD5170C4
3C6B3A74
BDC4141A
3C0D6E7B
3E1FE104
3D4772EB
BCF9D526
BE2E5C69
1DE50C32
2EDEA5B2
BE1A2DEB
BE243551
3E3BDAD4
BA2D880
BCF5709A
3CE82F11
BE54A67B
3DF0AC67
3DF30BBE
3CE1D170
3DB15686
BDAFD7B0
BE16DE57
3D8CD3CC
BDE2D4FA
BDD07570
3E03BE81
BE019F94
BE2DB512
3D8D85F9
3E009A5A
BE2838CF
BD46577E
3E22F1A6
3D11ECDA
BDC850D5
BDE11CE9
BE0C3216
BE12EA29
3DE2049B
BD2A29B6
3E07C93D
BDC40253
BE0DEB51
3D4919DB
3DD236EE
BC2D312F
3D01E968
BE0B29C5
BD2C0299
BE28843E
3D51F96E
3C3C5333
BDA73EB9
BCFD4E31
BE1A180C
BE1C476C
3DB187C3
BC28270B
3E3DC6C5
3D86B0F2
BDF83270
BDD01618
3E2259B6
BE3B1A69
3D2B9A3B
BCDB2C02
BD90A692
3DCAD956
BD81B179
BDDA2AA6
3D712EF4
BD6F31D4
BC269A6D
BCA7755C
3E1D4F7F
BC2A4D46
3E0CC3DC
BC775D1D
BE2C3DE6
BE10F5D3
BD5248F5
3E2A0176
3C0D5373
3E1B661E
BD6EFA3F
3E437A44
3E32F58A
BE017FAB
BE19178A
BD66471D
BCF166D0
BC8E1072
3E291692
3DB0EB34
BD87114F
BCBF966F
BE225F5B
BCFBFD72
BE32B7B4
3D22322C
3D9F1CF5
BE1DA7EC
BDACCBD2
3E1EE87C
BE02F3B0
3D273A90
3DAECE69
3D9FA1B8
BE2FFDDB
BE1ACCB4
BE1CEF5A
3DD8DB27
3CE78CCD
3DA77870
BDC4C0A8
BDBFA5F4
BE0C672E
BDB3F839
3DF0B173
BDD7105A
BD5D0CB0
BE072D35
BD7D6623
3E1A170A
BC7F2955
BE315894
BD9E0C17
BDF6814E
BE049CAD
3CDF9BAF
BA4E2AB
3D93F0BC
BCF1D8F8
3E227F4F
5DE94EAA
BE18504E
3D741483
3D3D179B
BCC99154
BD25243D
3E47FC46
3E4EBAAB
3D7ADC98
3D029FC7
3D22DD52
BE101E4D
3E057323
BCA86083
3E000192
3E2E3899
BDD00A1D
BE3FD619
BCF4B91C
3E22F55A
3D18EB78
BE11000E
BD58CABF
BD0401CD
1DCDABC6
BE1D0169
3D41A4A3
BE31C0D5
BC85A129
3D51ECF0
3E14B678
3D002366
3E22F247
3DC7422D
3C50CF1E
BDC45831
BD277738
3DAD60F3
BDE657A8
BE62C6EF
BC4298E0
BDFF5C78
3DF4761B
3DD532F3
BD8F3A71
3DBA76B1
3DB3175F
BE08C19D
3D843AC9
3DB3E417
3DBE6F14
1CD989C
3DC6DAAF
BE24EC30
BDCCDCBF
3DE459AE
5DEACD4B
3E2994BA
BDCAC64C
3E12E4AB
BD3ED2F7
3DF6C334
3E1B19BD
3D86B21C
BE32AD67
3D04AFC9
3DF0C8C8
3D02E1A3
3DB05337
3D8844C6
3CADBFAE
BDF38732
3E01EDD6
3E6AF945
BDF3902F
BE0E2845
BCF7942E
BC602015
BDD2F49D
3D9FD0B5
3D60E431
3DE37522
3C31939E
3C315949
BD83D735
3D492D91
3D96D526
BCEF20E1
BDB5E94F
BD4CE495
3DE6C921
3DDFC632
BD927DA4
BE370BD6
BC99737D
075D4B6E
3E007A56
3D04AD52
BDA3169F
3D40C529
BC984712
BC74284A
3DB2E818
BDB68EE9
3D2AC132
BDAD928B
3DD9B338
3E4842F4
3DEDB9EA
5DEA2526
3D4E5AF3
3D9D3FA6
BCAA4C7D
5DEA49A0
BD91EE3F
BCC344BA
BE13A616
BD7128BE
3E26E697
3DB77AC1
BE1FBD2F
3E11279F
3DA178AB
BE0CAF18
BD950032
BD926892
3D7F71F3
3DE216AB
C0C00001
3D2CAF32
BC95DD61
3C90A50C
3E23782C
3C0384CC
3C2C90E5
3E2AFF99
BDE588B5
BD69052F
3D553044
BD8FAEB3
BE241F38
BE0961B2
3DE66DA9
3C9DC73F
3DFA9060
BDC57DE9
BDFB80E8
BE24F4E8
BE1463A1
BCFB9E46
3E3BECD2
3CDDC400
3D2A3726
3D81F9F9
3DC649BD
3DA021FF
BE0C0DF2
BD17D10A
3E0AE2E8
3E143F22
3DAFFE16
3D40B343
3D7453A7
BDFBBF9B
BC91BB66
BD9A55B5
3DB36271
3E165056
BDED76BF
3DCBCB7D
3E3D5762
3DAD1429
BDB47EB6
3C9B0BC2
3E3460ED
2E53119
3CD1869A
3DA0E950
3DFBAAFC
BDC2D531
3D1A102D
3CDA429A
3CBD6B17
BCD4E7E1
3DEBB9D1
3DCC5DF2
BE0850CB
BD9A3B2F
BD95CADB
BE0C28C4
3DB129FD
3DBB6B0D
BDF7AAFB
3DB5005D
3E35245F
3E065A5F
BDC026C8
1CD07F4
3D75B9BE
3DA4A2E5
3D2AA03E
BE27F682
3D38A599
3CE28941
3DCD81F6
BD9DE864
3DAFB0E1
3E2BE798
BD4A47DE
3C998482
3D85A6AD
BE2DF87A
BC29D23D
3DD0430A
3D11B7DD
3DC5215A
3E22DEAE
3E0A2F03
BDBE5A8E
3DF8C84C
BE1861B3
BDE83EB0
BD371967
5DD1D41F
3E1096F4
3E20F152
BDD0AC92
BDAE69FC
3CE79DBC
175BF820
3D7CB40E
BDADF6FB
BDF98FFE
BCB17C58
3E34484E
3D464E00
BDB40CBD
3D6104D3
BDD3A44B
BDE8680C
3E1ED6F5
5CC7C30
3D5B5070
3D9BF08C
BD8B8E96
BDA298D4
BD9ECCB7
BE1494A6
BC8D4364
2ED4ABC9
BDEA31A6
3E09938E
BE2CB0E4
3E0BC04D
3E136DFE
BE29C847
BE2A82F4
3E297E76
BCDCE46E
3CB7F2D9
0ED08129
3E131B4F
BD54C597
0EDBB0E2
BDCD5C56
3DF103DE
BD9A5A2B
3DC3398A
BDE35FA9
3E0BB958
BDA18111
BE12AA06
BE1D4769
BDD6C6EA
BC7EA65B
BE0EF28B
3E044487
3D949757
3E1976F6
BDA9AC8D
3E0DCBE2
3E21E083
BD627B34
BD262B20
3E14B6DD
3E4099B0
BE14D1EA
3E1FE53F
3DE2F07C
3E2D777F
BD5FCFDA
3D4876C7
BD814114
BE2A83BA
3E32A4DD
3E34BCC3
BE1DEF6A
BE018E20
3D4F693E
3E142F76
BD75D397
BE06865D
3C161F6D
3D9C580D
3D3FFB93
3E1A8BB6
3E37CFE1
3CEDEFA6
3D8D4D4C
BD424827
3D88C39F
BDB449FA
3DD1BA21
3D068091
BCCD5911
3D0E6C59
BDCAA01A
3D7B6A57
BD3D1E34
3D6EA6EF
BD753A1D
3D3E3CE0
3E0C1648
BDC6C478
BDF10D9C
BCE23044
BE28E2BA
3D3881FA
3C0247B0
BDA8D5A0
3D35B5B4
BD806DA2
BCC86753
3E052DD5
BD6F7791
BDFB8802
BE22EDE9
3D9FC973
3D8A3A2B
BCE6E2B3
BE4247CB
BE2627D8
3DB844A5
BDCAB7EB
3DD406C6
3CCF6478
BD2B0586
BE24534C
3E1F4448
BC7A9A62
2EC2D7B5
BDDFFDB1
BCAFD236
BCDD4378
3E26663E
3DC3E050
BDB0AF4F
3D81F8C2
3DD6D3F2
3D0B9C1D
BD8F5F24
BE01F79C
BE1D12ED
BD6E4E6D
3E17B084
BD3878C9
BE0D3F7D
BDE6E743
BC987038
BD060D4A
BDB6FB72
3D5B15DF
3E21C775
1DECD27C
3D9D105C
3E30CD54
BE128731
BD3105B7
3D72A218
3E14DC27
3DBB6940
BC5248F8
BDB12092
BDDFB46F
BD02AAF7
3DBE37F2
BDA7B61A
3E21F442
3D1DD38B
3DE7F89D
BE2A7531
3CDC383D
3D268810
5CD863D
BD7E436A
BE33B1A4
3DACF01A
BDB49315
BE2861E4
3DE34574
3E081FB5
BDBDC1EB
3CCD07AC
3DFA1DFA
BCFEBB42
3C618C28
BDD1694B
BD4BAC2B
3E0A64F5
3DE163F1
BE12C18A
BD978BF9
3D853620
BDCAB197
BE2212CB
BDBF879B
3DC5370F
3D34B797
BDEAD1FC
BD4C0973
3E0B07D9
BD90F1DE
BD90BFEC
3CD954D4
BC4A27CE
BE1183EF
3DD587EE
BD944CBA
3E02D58F
3E1CFC10
3DE42E0D
BE1CCC13
5DF5A659
3DD3FC0B
3E3EE38A
BD43098A
BCCCBE16
3CB99D9D
BDD729A1
BDEF178F
BD811AE8
3D10756D
3E150457
BE694364
3E2A180F
BDEC4677
BDBA78D5
3D1D00D2
3D748248
3E0B1625
3E13069E
BDE8B9BB
3E3AA6F8
BD2836C9
3D551497
3E2EDB9E
BC4CD0AD
5DF63DD9
BC33F519
3C96DB0A
BE232D9E
3D8A833A
BD2AE8A9
BDA49743
3D1F3087
BD8C0B6D
3E13BE9A
3D0F1CE8
3E3B23A1
3E1F3DAC
0EDD10C3
BCE6978D
BC8EFCA8
3D885761
BE12704F
BE07EE49
3D99EF1D
3C91A155
3E1D955C
BDD646C7
3C73071F
3E5691BF
3DFB6B58
3D3A0D91
BE29A2D7
3E3F5C13
BD81E12B
BD7E6F67
BD65C42A
BD841AC3
BE06B014
3C14D5DD
3E1FCE51
BD98CD96
BD5247F0
BE1C529C
3E140BC2
BDF79BE6
3E2DD7D1
3C769832
BE06908B
3D51C73D
BD84496D
BDD95308
BD635CC9
BE03ED04
3C8B44DE
BD770EDE
BDCFBDB4
3DA96035
BDF8C3E5
BD3C8F87
BE19649A
BE2FCD10
BDE38C74
BD8C5549
BE0F7932
3D270093
BD811AC7
3DF5C2AF
3E3E5940
3DAFAD04
BD23D730
3E1BF8D5
BDCD3224
BE0439BF
BDBA9206
BDEE0A04
3DFF446B
3CC11085
3DB16D3B
3D0089F0
BE006E9D
BD7280D6
3D7F356C
BE14281C
3D5BA286
3D3716E7
4080000C
3DA6295D
BDC134C3
3D700813
BCBC9E25
BD99B9BB
BE3C0BC6
BDC9DE32
3E263A38
BDF3F9F0
BD8D20C2
BE1ADC01
3E31C4B3
3E361697
3D07E298
BC10C67F
BE301206
3D9009BD
BD1C6B3C
3DA5C7AD
3E1529E6
3E156E2C
BE343390
3E3C9307
BDD5EA38
3CFA8802
BD46C1DE
3E03D9DE
BD38023A
3DD6DAA9
BCC7F093
BD6C33DF
BC856925
BE102955
3DBE8AFE
3E53DEC0
BD627385
BD1C9AF8
BDF88848
3D9D0A11
5DE167BE
BE242F34
3DADFF7F
3C41D848
3E0EFC6C
BD4E2B00
3E15CAA2
3DC8E03D
3D0C12DB
3E11B2CF
BE12D85A
3D0FE109
BD55BB4B
3C1B47DC
BE237FE6
BD169EE6
BE1C2E8E
BDF7AFF1
BE50313E
3DD9D347
BC3702BE
5DE51B27
5DFC47C4
BD353D17
3D35FE7D
BC7E2B79
BE2C3F00
40C00011
BD022D95
3D938792
BE13B340
3E198C27
3D55C993
2EC0F366
BE01AB23
BD57AAD9
3E26D334
3DE461D4
3E430038
3DD57492
3E2D6799
3CE08B01
BD7711E5
3D549BA6
3E07CD66
3DDB501B
3DD2E9A0
3E161223
3DF51510
3C2B07C8
3E2D1871
3D07498C
3DA5A74F
3D09D5CA
3DC4557C
3E257422
3C99E100
BD4258F0
3E2A357C
3D341225
3DECC9DB
3C43CD49
BCAEBBA5
BE36C42A
BC993E66
3DB89068
3C36317E
3D8D1360
BE14C084
BD21E206
BD8CE80E
BDE91C77
BE183EBB
BE2F50E7
3D6DB6DA
BD8A8270
3DC7DE89
3E4B4EA7
3C618EDA
BE04B3C3
3E197F7A
1DD00C60
3D5740DC
3DF37753
3DBE8A82
3E0E76EB
BDFF9C77
3E13029F
3E2208FE
3D13DE02
BD6377C3
BE25178F
BE08E4EE
3DCF13A5
3E27BD29
2ED4C9F1
BE252673
3E39C8B0
3D8F5528
BDF7BC94
3CE0692C
3D002FE0
3CB5162C
BE29984C
3D73112C
3E1F7E71
BE04C3AA
3DCE4FEE
BD24517A
BCB35607
BD60F2DB
BDDCC4B9
BE0FF400
BE0B48A9
BDE63C47
5DE2229D
BCF3CBD4
3E08D08C
3D959DFE
3DE776A5
BE2091A6
5DF39545
BDAB6598
3C966E75
BCB8F94C
BDB665A9
BD6F3BBE
3E0F2E75
3D95DC87
BE0BB8D3
BE39845E
3D809301
3DC79738
BC34406D
3E064398
3E120662
3D0E6227
3CD4A6ED
BE069392
3E15279C
BDDDFBC5
3D7EDAA3
3E25B816
5DE301D5
3D343D43
BE1FAFF1
BE1A95BE
5DEB4F2F
5DFFA762
BDA6ADAB
3DBA86ED
BDFD20ED
3DBAB409
BC94779F
3E30C300
3D9212E0
3D619037
3DC4810A
BD3FFB6B
5DE87D8E
3E23CB7F
3E2C846B
3CE2243E
BDDAC6D2
BD0C612A
3D22B180
0759ADC9
BE2A4D26
3E2F01C4
BE111551
3DE24C57
BD96A4DE
BD82C5B6
3E1D90C0
3CD70289
3D9236B3
3C5DEB76
3C124896
BD38FE4B
3C8FE895
3C3BD685
BDCB3535
3CF80209
3DB0E212
3E010477
0EC553D5
BD9D19B1
BDB86BC3
BDDBC0E0
BE050F91
3E2DA14E
BDBC507E
BE19E8F1
BDF3DECC
3C541755
BE3B8FF3
BD27373E
BE1436D8
1DF415FA
3D77A169
3D57C990
BDFF637C
BDC78D96
BDFCA78C
3D1CF6F2
BE178012
3E2D2C76
BCE6DED6
17506E82
3DCD909E
3E3D41D0
3DE97CEE
3DFEA6BA
3DE312F5
BC5D9116
3D81D105
3DF36775
3E08B9B2
3C90E8F0
BD3C75D7
3C34B9CD
3DC3F7C8
BD65314C
3E0DBA67
1757C403
BE1C622F
BDD3DA64
BD99FF5F
3D682055
BCA13FC8
BE0E854E
BDC04ED9
3D40F158
BC7FCB13
BC8093F7
BE1BA267
3D32E6D8
3E0AB67A
BD259650
BD61B7EB
BE090CAE
3C95D022
BE177561
BDB35D0A
BE172FFA
BE02B732
BD091B80
BD8F45B2
3C61F33C
BD7C5ED6
BC188EC7
BD8CBAEE
3CD28159
BE4E9B9A
BDA6F4CC
BE21C3E5
3C862F26
3CFDFF03
3D05DD48
BCEA7E0D
3D98FD4E
BE3A3DDE
BDDBD473
3D0CB49A
3E012A12
3DF2E305
BE48F8B6
3E2BF0B8
BD9C87CB
3E387777
BD417EEF
3E060B1C
BD951159
BD8D7736
3DF96F44
BDCA62B6
BD9CC651
BE27B0C5
BDD92544
3DAA44B2
3E20F9E5
BD7285ED
3DD50B27
3DAE024D
BCB94816
3DF8A4D2
BDFFFABB
3CBC44F1
BDE55AC4
3D9126EA
BDB01125
3D768854
BE0534CD
BDBA0F3B
3D394C43
BC76FF47
2EC8CF92
BE27083F
3D96B5C6
BE5F74C7
3C618374
3E20CABA
3DA50886
3E0107F5
BD28E2E7
3C950500
5DE9E62B
BD09C5EE
3D11ED72
BE0AD3DA
BE20FC2C
BDEDDB6A
BDFBE506
BCACDAB9
BE0AEB0B
3CE546F3
5DFCC4FB
3DEE1DD3
BCCC6197
BDDD0AA4
3D2AD023
BE3CFF0E
BD02D073
BE08067B
3E14E22C
3DC0DA4F
BDB8DAE3
BE165918
BD9396C2
3C04DEC8
BDDE636B
3D0DF8D1
3E06D653
5DD3135C
3DC91DC3
BE090454
BD25E110
3E1E3AB7
3E2A934D
3D7C631E
BD2D9382
3D0D9066
3CF2260F
BE253DF8
3E15E279
BDFE3D41
3D79DC37
BDD4CFFA
3D8EE9B3
BE003A5F
3E1ABC0A
BD034B74
3DA82137
3DB0E757
3E077950
3D110058
3DA9CDA0
5DD97867
BD62AADF
3CA836A0
BC54E448
1CFA935
3D751980
BCB13C2D
3E2EF22C
3CB027C8
3C7CD0C4
3E15E6C6
3E26216F
BDAD4231
3E05CCD5
3A654C5
3E2C707F
3E1C154E
3CED23FE
BD1C8F05
BE1C774D
BDE095EB
3DB5C484
BE21907A
BD916DE3
3CCEF63D
BC10B3FF
3E06407C
3DC8249A
BE006979
BD26C07A
3CCD20C8
3DF4921B
BD9ADF91
3E2E28B9
BE0A4EC9
BE05FA9C
3D417CC0
3DA93056
BD18F867
3E226590
3E061A87
BE2D86D4
3E1239CB
BDC0D158
BDE26D82
3E274A9D
BD602258
3D74FAA8
BE29616A
BE1F3634
3E52D9EA
BDE2EEE0
3D306F41
3E1F3C67
3DB5CF53
3D5375CE
BD20BA0B
3C0968C8
BDF5CC54
BD833762
3E02D576
BD1B843C
BE3B9EC4
BE169FB0
BDEB9D53
BD8F584D
BE219C15
BE183A6C
1DCD1B53
3C08959F
3E43BFD3
BD01F221
3DAC3D25
BE075A35
BDA68E9A
3DB64B79
3E100566
3D135905
3CEBFCE9
BDA14716
BDA6C45E
5DFB3E13
BC072857
3D311F4D
3CC469C9
BDA6BF7D
BD8F4678
3E3FCA98
BDE6AC15
BCDF6DBB
BDAECF9A
BDE9A928
BDE1F854
BE28E21D
BDF8726E
3D2217BE
3D92C2E9
BDAF95E2
3E0F8742
BDC898DA
3E58B491
3D89E96F
BD123258
3D42A7DB
3D8F2674
3CF2BBDF
BE3DD028
BE0995E4
BE34118A
BE06D725
BE2FC267
3DF23E0A
BE4E080F
BDF0BD1F
3E0833CC
BDA75AAD
3D0FB526
3E16A9FD
3E29F08E
3DA6676A
BE2D2685
3DEC6FC3
3CDB11CF
BCE4A920
BD5FD869
BCFE193F
BD17D685
BD472A48
BE39D785
2ED65133
BDD612F8
BE372B9A
3D88416E
3DF38A15
3D0190EF
BDFA4D0A
3DC45CBB
3D1D105D
BE1B774F
3D2240A0
3E2C08D5
3DCD8D74
BDA5135F
3D77135F
BDDB6491
BE141988
BD4A7783
1DDB39BC
3E242079
BD8AF1A0
3E07D0FD
BD477D13
3E2F8F75
BDE50FE0
3E33B337
3CE11A8F
3DBBFB1D
BD7D8755
3D518547
3C0E1EBC
3D00F3D7
BE27DE61
BD0D5076
3E39B396
3E2A6A41
3E04CDC1
17528C23
3E013247
3D78CC37
BE18B272
BDD4F76B
3D5300F5
BD9200CF
BDFDC903
3E1E458E
BE2E3E67
BDC7FA14
3DACEFBD
3DB9B837
3E231947
3D8775A9
BDD0DCA8
BDF1AE3A
BE23D081
BC9DEC39
BE0AAC0E
3D9F341E
BE1E133D
3D11A6C2
BDE6F88E
3DBD3EE2
BD866749
BD3F21DF
BC9F943D
3C9F57E8
3D313E7C
BDF2C336
BDB6C04C
BC5786E7
5DF236B3
BE037A1D
BE13F2A4
BE21FF53
BE03F414
3E26CDFE
BD949586
5DD67B45
BDA4F1FA
BE2C0652
BE0C3D2D
3DEA3346
BD20E7DE
5DC34116
3A78DE8
175A44BC
BDF3606D
BD089D08
BE0F659E
3DDD5BF4
3DB9AACB
3E372147
BDE328B6
BD35A566
3D9A4D13
BD192F7C
3D3052ED
3D9B8DC5
3A5B80C
BCCB1311
3E322650
3E38413D
3D83EEB6
BE4776B0
3DEDF8B3
BE2876B2
3E24B63F
3DA84C27
BE0042BE
BDD0309D
BD461F17
3C2AB533
BC049069
BDDF8350
3DE7C554
3D235E15
3D526103
BE040EF7
3E1802A4
3E166D8E
BE06F6EC
BD9449C6
BD2CEDB8
3D8AD205
3DF3C62F
3CA10799
BDB9E25E
3E0F104F
BE6252F7
3DEA0E51
3D1DB2B4
3DCD1294
3D16ACE6
3D660C33
3E1521F0
3E1B2639
3DCDF325
BCAEF570
5DC292FB
BD042B6B
BD637CB9
3DD73D52
3C62AD75
3E19F637
3E39F395
3E2AF760
3E1AB824
BCAFDBDE
BD64748F
BD4056FB
BE36AAD7
3DDB9065
3DBC1C50
3D3F7B42
3D8703E6
3C4FF6B2
3D2AFA18
BE180D41
3CF06B87
BD921363
3CE01DE1
BE1A6EFC
BDCD0B44
3CC052BD
BD55B582
BD9FFA5C
3DC25C26
BDABC38B
2ED3F1BE
BDE0324A
BD279FE2
3D8A9F58
3D4062CA
3D425A28
3D6F3D6B
BD6B2A9F
3DF5935E
BDEFCB73
3E2184D5
BD8CB127
3E18F0B0
3DC72BF3
BE18AFD7
BD7449BC
BD6EB6B4
BE21D919
3CC6EAB2
BDA90B37
BD0F8B72
BD1987B2
BD107F3A
BC9FE4B4
3D845411
BE003C54
3D9F93E0
3D21CF95
3DF1A378
BE1BB588
3E559819
3DF03599
BDA562A9
BD69A926
3E259FF8
1DDEC793
3DB41A20
BC85BD75
3D8CF860
BCE42D5A
BCFEEF68
3E0AC0BC
BDD83943
BE23236F
3D48CFF5
BDCAD149
3D9BBEA7
BDB9CEFC
BE0F0B7B
3E0FD6FD
3D1A285E
BD446934
BDD27B2B
BD890468
BE015D77
BE0B5A1E
3D447C79
BD57A749
BD8559EA
3CB463DE
BE28BC30
3D0021E4
BCFB9EC6
BDC62E8A
3D90FA69
BE5999BC
3CF01EB5
BE0A1D27
3DA7DF3D
3E1570EC
BDA839AE
40E00008
BDC91D39
BE16F2BD
3D835551
BDC658DD
BE391918
3DEFD178
BC8CFF9C
3DC85237
3E089620
3DB79CD8
BD9AB6CD
BD27DABC
3D133996
3E363A8C
3DEE206A
3D7D0CD7
3E3BD7B0
3E2F4053
BCC3EC32
BE004A53
BCF5ABCC
3D239112
3E40D28C
BD0E5AB7
3D330DE7
3D549A61
3E223A8E
3C9F823E
BD6B9B1B
BDE3E8F6
BD9E07E3
BE1F4E30
BE366895
3DAA511A
BDF4913A
BE006C58
BD9BE707
BD272EB8
3DC7EBF1
3DA06437
3E481A9A
BE1A986A
BD1EE375
3DD7EFB0
3E123349
3DA5FB73
3E29AF95
3E2DFC98
BD4AF608
3D55C3E0
3E01D576
3E167F9E
3E03B734
BE3561D8
BC3489A8
3E299713
BDE8D277
3D144643
BD1DAB4A
3DCECF0A
BD7C74A4
BE1606E3
BE15EF5B
3CFC7767
3DDE5809
BD42DB1F
3D750BF3
BDF5F650
BD159578
3DD46CDC
3E3695EA
3DACDD25
0EC71AB6
3E0D6189
3DA02568
BDAF0C99
BE06912D
3E22F60F
3CCF7774
BC0E0D2A
3E2BC65B
BD7ED3A7
3D5B2050
BD8953C2
3D70BAD7
BE13C2B5
BDA37906
BDFE540B
BDD48749
BD0DB9DA
BE2D567D
3DBCB0FB
3CEBFC12
BCD874DD
3D5729DF
BE16B641
BE055036
BD9A1BF3
3E0DC813
BD564D40
3CB35825
3DDC143F
3DCB0A67
3DECD186
3C9FB9C1
BD7072E0
BD663EA1
BE1CAC42
3C452A98
BD3438DA
2ED3FBBE
3D996125
3E1AE8C6
BE1A088B
3DE68968
3DD71FF4
BCBEFC30
3D2FEF79
BE00D800
3DD78221
3D974028
BD390749
3D3B5C3F
BD6D21A8
BD8E0783
BDABABAF
BDE0C4EE
BDBB86C1
BD1B2C0D
BD6521B7
BD654BB5
3E3441CF
BE37BBB2
3D9232E1
3E20629E
3E07A8F1
3DD60664
3DC811F6
3DAA3147
BCCE1E8F
BE1E9CC0
3D158A05
BE1E0DD8
3C99633C
3DD00E2F
3D85989C
3E1AE844
3DB9F51B
3DAB0741
BE099D4D
BDB7F2A8
3DE57D57
3E15038D
BE39B725
2ED48D4E
3D56AEA9
3CAEAD55
3DA1006F
3C33ABC6
BE354C42
BE068AEB
BE086CA0
BE197C95
3DD49742
3CEEA035
3C23B932
BD0C9D8F
BCE73DFE
3D09A573
BD999C4F
BE123255
175C8CD6
3CA4161A
0753D690
BC6157A6
BE08781E
3C12BA85
3DD83A49
BE2BF73D
3D8CAC28
3D6DDCB3
BE254F2D
BE1CFB7B
BE36F7F4
3DB46BE4
3E0E686B
BDD8BB15
3DC9759B
BE2EA35D
BD959B4A
BE31FC3F
3E0451B6
3DDF2ED6
BC93B9E9
3E1F4443
3DE89FB9
3C0B40A1
3DA8701B
BDEDA792
3E020A0A
3E1BD557
BCBC698C
3DB15E5A
3DA89EBD
BCCC7DD5
3E4607B1
3A53EBF
3CDAE877
3D0B2F24
3DB3A153
3D94EF0B
3DEB906A
BD42FCCC
075B2EA5
BDAE2DDE
BD418775
BDD01CB4
3DBF3B75
3E4BA091
BD8F8391
BE23F4DB
BE075593
BDFD54FA
BDE147ED
BE0A8178
3CBEB40B
3D5AA86E
BDBACD37
BC50C3B5
3E2D2C8A
BDB8BA5C
3DFF99B1
3E0D94BF
3E024B04
2EC30326
BD9D7784
BD750FF9
BD952580
3E21C7A5
3DFE3AA9
BD9854B4
BD683F44
BD836B9B
3CF085F9
3DA453A9
3C7E524E
3D2FBB0D
3CF7EA43
BE1BC86A
3E1AEFE9
3E28FF20
3CDA0AEA
3E37F753
BDFC815A
5DDFB0E6
5DF72A04
3E07535B
BD4B781E
BE28543B
BC2F7772
3E182A1B
3E3445B4
BD599AF5
BC29F8AD
3E1FC9FB
BE2A376B
BD781BC0
3C6982F8
3D9BD0DE
BD83237F
3D94AD1F
BDAE3535
3D9F205E
3DFA0D44
BE47AB91
BE117E97
BC911576
BC98BBD2
3E0B70C6
3CA0C3A2
BC54D32A
5DF3EADC
BDF8A65D
BE159583
3CE3413D
3DD49C64
3C0128A2
3C77E4E9
3C58F6DD
3E4CA4D0
BD1CF81E
BD835F5C
3DAEC489
3DC22710
BD6C7299
BE1AD1DD
BDB8E8C7
3D1933D1
3C91B948
3E462277
BDC09D6A
3D9939F5
3DE03F94
3DDD5DC8
BE3FB086
BDA74EA9
BD8628F6
3D69634C
1DDD0F9E
BDFB95F2
BC5399B5
BD121A15
3C2BF941
BE2F99B3
BC8DEB1D
3E30A952
BD877E86
3D14986C
BE11C06D
BE4637E7
3D3EC06A
3E028F9E
BE0EB506
BDA48FFA
BE02CF9E
BD67043E
BD879286
3DC5128A
BD975F72
3CA7813C
BD382298
3E09ECB8
BD00EC2F
BD82B7A0
3E0C0937
BD5E96CB
BE43E0F0
3DEAC300
3E36995E
3E08F470
BD97AFC3
3CA08C8A
BDC8D139
3D83BDED
3E282BA3
3D05633D
3DBA6593
3D89F296
3C92C409
3E1F03E1
BCADBB67
3DB373F5
3DCB7B2A
BDF13747
BDFE963F
BD2B6B10
BD3C1B8F
3C9A8EF9
3D8810C9
3CE3B13D
BE055FD0
3DB26FF3
3D0B21A1
BDCC4EFB
BE22DA30
BC035B84
3CA14C6B
BE0BF727
BD016C9C
BD13EFED
BDCFCFB9
BDCF09AC
BDBF3AC7
BD0559DC
BE20E0CE
BD836452
BC1A4673
3E2765B0
BE283AA9
3CCA5E32
BDC33B21
BA06B20
1DCB883D
BD21C176
3DC07D8A
BDC76B5E
BDB60893
3D623DA2
3D2C63E2
3DAEB080
3DB19B4C
BD82558E
BDDC4DCD
3E13C8DE
3DD6799B
BE42B818
BE258F1D
3D1D1580
3CC5906C
BDB059E9
BCE8E99A
3D6BFCC3
BD653677
BC97CEC3
3D409973
3D641977
BE067944
3DAC9B93
3DCE696B
3DC4A2AC
0EDEAC6F
3DC7662F
3DC2E5E8
3E16BBF7
BD284877
3E1C373F
BE3AE662
3E1B70CF
3C6C6CB2
BDC44B02
3D47A8C4
BD9B45A2
3E1CE645
1DD1E3CF
3E3FAE05
BDCB3496
BE365D10
BE35E935
BE01AC67
3E0E547B
BD69EA18
BD823EC1
3C2BD54A
3D786384
BD7BC4AF
BE0C4A92
BE44B9C7
3D84DF95
BDCFEE9D
3E046E3D
3D36BE31
3D923D16
3DF90937
BDBC099C
3D9CF974
3DB65223
BA0F44B
3DF3590C
BD5BAAEF
3CF0D753
BDA30A30
3D2F4F52
BE1CD855
BE221313
3D2A973F
BE1CC28B
BDD13115
3DC4D3EB
BD4C8486
BD480533
BD566A4A
BDC7397E
3DA12CAD
3C7465BE
BD1C972C
BE00FEDE
BD61992E
3D797CAE
3E0B3D8B
BD0C8EBD
BDA149A2
BD7F7404
2EDBAF5C
3D2875D2
BE0372AE
3D606CB9
3CD45665
3D688AB8
BDEC2632
BCB6E5D9
3DD35E8D
3D47BE02
BD2D6006
BD97EACC
BC9FC2A2
BE118B51
BDF13C22
BE1AF32B
BE0F7EC0
3DF74812
2EDB5F9F
3D6A715E
BE05BAB7
BD22E863
3D129C87
3C20AAF6
BE420AB7
3DDAB25C
BE17F731
BD82AE88
3DC5E601
BD955D91
BE049FE3
BD3410A6
BDAEF57F
3C59C557
3E22678F
3E12EC2E
BE2300A4
3DEDFF0E
3E3F2198
BD44A5E6
3D9D59B7
3E136E8E
BE0CF992
BE189D32
BD4D54BF
BE0DD2D9
3DC41E13
3D32425C
BCCF29F9
BDCCC9D3
2EC87DE7
3E023F99
3DF9B9B5
3E32BC79
BE38C321
3DD6060A
3C338451
BE233C36
3E16DE4A
3DE8A9DA
3DFEFAD1
5DFB34EC
BDD59B01
3E1B5F28
BE290832
3C03D5DD
BDE3F0DE
BDBC3913
3E017D9B
BD27A8D4
BDA8AA24
3CB1E788
3E299EEE
BDD907AF
BD47D3B5
BE0E5035
3DC5D97D
BD1B0594
BE420A6C
BDFDB561
3D72329B
3D3E74D0
1DCC4262
3DE2FDFE
BE21BF32
BDD0A139
BCF0AB03
3DAFD4BA
BDB624AF
3E215520
3DD4FE58
3D1CDC6E
3E03B6D1
BE1DC229
BDD30395
BD223AD7
BE1F6383
3D001F1E
3D3C93FC
BE0FAF39
3E1B7126
BDC7AEE8
3E3314DF
3D82AC4D
3E118A58
BDD82784
3D0F4671
3DA46656
BCA26175
3CBA977F
3D0C81A3
3C90C0EC
3CC5FBCE
3C3DA01B
3E19CF87
BDBD7964
3E3122C6
BD582599
3DFEDBA1
3D3AE76B
3E4DDEED
BD317F3C
3E176026
3D78D50F
BCDAC091
3D4A28C9
3D93D330
BDF2480D
3D5FA5B9
BDB8540A
3DFE83A9
BD60EAE5
3CB68634
BD0B82D4
3DB13A9B
3D3119A5
BD8D02A1
BDA91D71
BDF52E30
3A0B6D3
3C9EE8C5
BDFBCE74
BE115149
3D8ED845
BD71B596
3DCB2419
BD87F246
3DC0518E
3E08990E
3E35562E
3E1451FE
BDEAE8B2
BD57E5C1
BCE0BD5E
BDF9F920
BDDDEC4E
BDD5EC82
BD7696C8
0EC034EB
3E01A1E8
BDDDF366
07545816
BD9C5B3F
3D9841D7
BE21A3B6
3D8CB95A
3DDCE51E
BE30F657
BD268D0D
BCFB5204
BDB1F545
3D83C20D
BDE76CF1
3E229863
BD3780FD
BD81DF6D
BDA89CC8
BDFC67A1
3DA8A2A7
BD9BDF90
3DFE70A0
3D0A8704
3D08273F
BDDA21EC
BE1E91C3
3D3F86CF
BD5CF57A
BE181198
2ED39BC7
BE25771A
BDA3F87D
BDA47213
BD5A28A3
3CF6D569
3D9E8A22
3E17FB29
3D8643DB
BC9B359C
BE01CFC4
BDE1A7FE
3E13CF92
3E15D48C
3DDFF4BE
BE2F92C7
3DF11371
3D56430D
3E1B3FA1
BDAE0087
3DF3A796
3D231CD4
BCC1DBA5
BD44FE64
3E2D51EE
BD659922
3DF1790E
3E1FB8C2
BD6AA25D
BE09374C
BE087803
BDD5AE22
BE18B16C
3CCC0288
3DE41A09
BD4BB476
BE107068
BE119220
BE3609C1
BE006D53
3D564B03
BCE1F529
3CF6E4BC
3E1E9A8A
3DC4AEE2
3D055655
3D4EA603
BD261923
BD048B5E
3DD63D1F
3DAE3EC7
3E1EB175
3E3CA276
3CAD7EE1
3E0A8AD4
BD8A6456
BE176A10
BDC4169D
3E043415
BDDFA2AC
3E0D2F12
BDB73DDF
BDA9E354
BDAAC125
3E24BD31
1751BE72
3DC82CCD
3DFA51A9
BD5C7832
BD2C916C
3D917FC3
BE0C8916
BDA6969A
3C91F95D
3D675652
BC25F8D8
BDE715F4
BD831D6E
BC9DF71C
BE2289BF
3C41F48E
BDBB7466
3D847705
BDC18577
075752F8
BE240368
BE0C11AB
3E1F832F
3E254D0F
BDAB3D4D
3E275D09
3CC00E62
3DF6FBA9
3D840E38
BE3A35C8
3D901827
0EDF1469
BDA82CA9
3DE46992
3E25BDEA
3DA9948A
3DF13643
BD9B3600
2EC1E7DB
BE053B1E
BDC46080
3DCC4961
3E1A8DC9
3E51268B
BE11A0D4
17512FAB
3C48E2CA
3D6F5B12
3E31C61A
BD14FDA6
BE2B5E8C
3E1967F2
BE08DEBC
BE0A492C
BDAE666E
3E277CEA
3DFA4D9D
BE33C9FE
3D82C9D5
3E0C2B4A
BDD6B2AD
3E3DCBB3
3DC30C29
3E2BF664
BE0C3095
BE147951
3DDD750A
BE03A521
3DBFB76C
BD94E982
2ECF2482
BCAF81C4
BDDD9C07
3E34146E
BDAA7132
3E19336F
BE07885B
BC69B95A
BDEE949E
3C814E75
3D9692A7
3E0B8FF3
3D000FD6
3E1FEDB8
3DEC031F
BD5305C9
BE10BA40
3E1F866F
BDF47D4C
3DAA2635
BD0145BC
BCEACA96
3DA01773
3DDCC5C3
BC43E78E
3E12EF14
3D9CF741
5DF5D599
BD25C64A
3DF87BEF
BD1E0A3C
BC87CF3A
BE3F30AC
BD203E9C
3CDB0B09
3D6087E5
BE303584
BDD84C24
BE050CED
BD37CE69
3E340EA7
BE0E7990
BD75F69A
BE27C548
BE22E0AC
BD566EA8
07571129
3E204BB4
BD8FC278
BDA68059
3D8DB5E3
BDA6FF60
5DD07F1D
3DA602FF
BDCE4D09
3E162250
BE18F716
BDAAAEFE
BC31E693
3CF29434
BDC5D2AD
BD53BD31
BD6C8C6E
BD74EB7A
BD81B0F8
BD8BD271
3E279D3F
3D8119EF
3E09EA2E
3D550580
BE184B38
3E58F5DC
BD9AB275
BCF29592
BC923976
3D0BD9A8
3E18910A
3DA2BFD7
BD5774DC
3E02127B
3DA7CF2D
BD4DD61D
BDD1D854
BC938054
BDEEC284
3E0E0FAA
3CC9AC28
3C08B392
3DEAE3DE
BDA4BC3C
3E6D7A87
BE522630
BDD38E0B
3D5EBA6C
BE20542C
3DAC7141
BD235483
BDF6D2B7
BE0D3A11
3E3B659D
BDF50946
3DC6DEAF
0758674D
BC8840E0
BE401F9F
BE2130E1
BE2CEAF0
BDEE9153
3C38027E
3DC74971
BE1EFF9F
BC80B912
BC6B6E3E
3D339BF1
3C3E5A32
3E2FB5F3
3DE63D83
BCACE0E1
3E226761
BCBAAF51
BC66C78E
3CA714D1
3DFAF53A
3D6C2E1A
3DDE7D80
3D2873CE
3C20980C
3E30852B
BE048A44
3DADEE25
3DBFD61B
BE3D0DDF
BE09A75A
BE0F96E4
3C8F329A
BD00D22A
BD7013B7
BDC6EF84
BDD0EA5A
3D8AEC92
3D367BB7
BDDC3242
BE08ABEF
3DC73FFE
BE03B7BF
3DB1870B
BD471F2F
3E0EFCD6
3DF1CC42
3DC50227
BE196148
3DF81C39
5DFD0403
BE274D34
BE1DA8D2
3DED9AF2
3E29A204
3DA7FFBF
3D5362DB
BCCCFABC
3E02973B
BE2DD1A4
BDA05E7E
BDE7B9A7
3DFD427E
3DF11AA8
3E27DD9A
BC914A97
BD0BB25F
3D272861
BE20AC11
3E28381C
3E3516B5
BC3BA5AB
1DD78499
3D9D3E95
BDC94201
3D2F3AD7
BDC3ACAA
BD9C9E98
BDC8344B
3D85FADF
BD7DCE2A
3DB6BBA9
3DBEAB93
3D1919D6
BD4DEE6F
3D292E47
BDDD8E7B
3E3D5E85
BE00B45D
BCD5AB85
3E1AF091
BD97E2D1
BD7B61C7
BD1AC290
3E310909
BE24F0B2
BE0EA2EC
3E0ACB38
3E04603E
BE1237DF
BDD40362
BE69F01F
BE1833CC
BD1BC246
BE076176
3DD12D81
BD4C44DA
2EC9E185
BD31A0A6
3DB71B73
3E2EFFD9
BD5E440B
3DF5D0BD
3DBDB505
3DE694BD
1DEB0E8E
BD196FC8
BCE5C93B
3E853AD4
3E269B57
BD3BCD61
3E2F84E8
3D26533A
3CAE54D9
BDD62DF6
BDE6E910
BE3247A4
3DD3BF05
3DDDAE78
3D0DD70F
BDF9AF76
BDA2BDF6
BE346530
3E07B7AF
BDE85367
BE00DB7A
BC6C0FEE
BE6D57D9
3E348396
BCDB04D0
BDEA2817
BE032ACD
3CFC8E27
3E345ACE
3CCECF3A
BDF6A968
BDF5E858
BE1343C9
BD425679
BCC894CB
BD020B4B
BD4B0C9C
BDC806E3
3E2EAF38
BE4861CB
3DEA0A26
BDFAFD50
3DCE6619
BD8E969B
3E2FE7DE
3E043246
3DECFE14
BE334AE8
3E1D890C
3D916635
3E34F5A5
BDFC7930
3D992AC2
2EC2D843
BD9D6FEA
3D9EF1A6
3D9D6D00
3E0C77D4
3E099F01
BE34081E
BDAAEDD6
BCF04C83
3E255AF7
3E1ED937
BE03C8D3
3D8351FB
BD6FE667
BE10FB3E
3C9510E1
3DA80A87
3DD62F36
3D3AFB50
3CFD616E
BD281625
3E1EF329
BE1BDE1A
3DD4BBE8
BD9C5E4A
BD00CCE4
BE152AA1
3E067956
BD8BFBB0
3D16715A
BDA8F863
BD1835BC
3CF0E605
3E37AF42
3DDA3677
BC6DF7AE
BD1CF8A3
BE35B29B
3E01F33C
BD6BA2ED
3D858C70
BDE39026
BD7CEEB1
BE1DBEB8
BE041311
BE184A43
3DC44FEF
3D811007
BDDE6C48
0EC7A4A7
3D9A7EC2
07537A6D
3DCD76E5
BE2A3E47
3E346EE3
2EC520F4
BDBE08B3
3D97A82F
5DF8B92D
3E24A60B
3E211D86
3D8F2663
BCCD8890
3C9F7B24
3DA11D8F
BE25096D
3DD9EAB6
3E2EDAE1
3E26EB9E
3D85C090
BD4BAF0B
BDDBF762
3D6A0A2A
3DB35BCA
2ECB296D
BD7845AD
BDC1E9D1
BD40C6AA
BE0DCEBB
3D10AA5B
3CBC4772
3D305913
BD5DF13C
BE2CF13C
BD7D1C81
BE37272E
BDA98F78
3E091190
3D3206BE
3D07FBFF
3C21C174
BDF24D1C
BE293618
BDC6B45B
3E512432
3D7CFEED
BD28B184
3DFA6A40
3CB19B09
1DE8D3CB
3C46D6CC
BE31CF8D
3D75F595
3E0F94A8
BD95A262
3DD56573
3CBD0BB7
BCDFB7FD
BDDAA232
BDFF8D27
1DD5C879
BDD34766
BE080835
BD7D6C0B
BDAB0C05
BE241E73
3D99A264
3DEC0F43
BD364304
3E2C7849
3E36F6A4
BD2B5F82
2EC6A6BD
BDFFFCD3
3DF78B9E
3D82611B
BE081031
BE01F0BA
3DD2C280
BE2BD835
BE0AD50F
3DD56A10
BD2B5CBA
BD5164FF
BE1E53B0
3D0AB286
BDB9F4AF
BE3E1A61
3D546005
BCD09BF7
BD00966D
3D4120A9
BE1D0F4F
3DA9E0C8
BD60D02A
BCA0667E
3E494EB6
BDD1B25B
BE017598
BCC2BA07
BE267A40
3E14899A
3E11FEC6
BDB79D12
BD7D332E
BD921364
3D46F6E7
3E10B166
3E135A79
BE3245C3
3E46B10B
BDFFA321
3D5338AC
3DFFF3F7
3E04C3D8
3DCEA9E0
BCE7A71A
3E36B308
3D71F071
3D0D942E
3CBDC6F9
3E34CE31
3D64F5FA
BDB56D2B
BC65BB4C
BD10F110
BD3815BD
3CA91298
BCBC2DC5
BD7C4D93
3D6C78DD
BD5DB198
BD9FA699
3DDA54D0
3E1B8948
3D5D9B0C
BD9FDA0E
BDB889C4
BD664F4B
3E1A88B3
3E3A4DC9
BC35085E
3DFB2329
BDD4A61F
3E24107F
BD2A95C4
BCCCDC86
BD9CCC24
3E143908
BD119C69
3C76D026
2ED7F82D
3DE0EF0C
1DF78A3D
BDAFD9A4
3DDEEC87
3DEEE0FF
41100002
3D4C22D4
BDBAFC90
3D005039
3E012F87
BD506334
3C41380D
3DB78FA1
3E195FDD
BE29B1ED
3D22E5EE
3DBD86E0
3DE17E44
3C420D01
3DD8AD29
3D8B0D7F
3DE1E881
BE2092F9
3D2BB853
3D903BCF
BD5731CD
BD9A6341
3C84445B
3DDFE044
BE23AA46
0EDEF84C
3DD6C9F7
3E07C737
3E173B4A
3E1E64A4
3D214766
BDBEE77D
BDEC794B
BC460302
3D948522
BCD848F5
BD9C7790
BCC7DB50
BDC97079
3DBD7E04
3D445C02
BD84F530
BD0B83B5
BC6E0840
BDDF74B4
BE044BEA
BE0E7E28
3DF5B3B3
BE39C276
BE0F7AF2
3C8B5CDA
3E17BA24
BDADA839
3D7323ED
3DFEF541
BD85E7F5
3DBEADEB
BD6DB18D
3CEAC8B7
3DF45E10
3E3C92B5
3CC7F998
3D56DAC8
3E0979D0
BE1CE3A6
BD01DB46
BE08801E
BE4E5F79
BDD49E98
3DDBD66F
BD8F7C7C
3D03B275
3E1A9ED9
3DB7E4F1
BE1F01AE
BE288E92
3E1FEF79
BE16568A
3CEE4DDB
3C4E557A
BDF4EB81
3E1C551F
BDED915A
BCD7CD7A
BE353EF1
BDC35ACB
BD653038
3DE3A678
3DD3F493
3E16BAF3
3C77EBC9
3E25F2DF
BCF332C4
BDE213C3
BC1CA0C2
BDA82ADA
3CC4DA6F
BDB88498
BD1040C9
BE1B448D
BDB55C8C
BE1BA13C
3E00168D
3DC66F60
BCBAA120
3E2B355F
3D8C59EC
3D963546
3D105814
3CB1315F
3C27CF63
BE34A000
BD9DD88B
3D6ACE1D
BDFBAD0E
3DCB02C8
BD953948
3D8E8D49
1DC25452
BD4F0730
3DFE3705
3DF45051
3D263FEC
3E0D720A
BDD93756
3C2B6B67
3E002316
3DD98082
3E3550D2
C0E00003
BDAE8830
BE0A92B0
BCFC6064
3D46426A
BC9F00AF
1DCBABC9
BE11E2CB
BCE62375
3DD440AC
BD962D9B
3DD43A8D
1DC970C3
BE1E3FFB
3DA5386B
3E221DD1
BDDB58F2
3D8AD19F
3D47ABE0
BDBC1574
BCE27B30
BDD61695
BDC59A78
BD84C340
3D818E86
BDCFF9A1
3D9B4196
BE2A2DC9
BD3A6EBA
BDFF98EC
3C9CBAA9
3E3AFC0E
3E25DB4E
3E27275F
BDF4D5EE
3CD89E0E
BC93AEA3
BE0F13BE
3C1121D5
3D61EFED
3D8C77A4
BD87E3D5
BE0B9EDD
BCA0AF3B
BD3595A1
BCE566B6
BD3920D4
BCC8CE43
BD3F4AC7
3E29D89D
BD59B5CC
3D82BE60
BCDB60F6
3E1F1C00
BCA91293
BD701E83
BE259998
3E192B07
BD8FB9A9
3E169003
3DF16520
3D3095FA
BD53BA82
BD707A97
BDC3A6E3
3E3C91A3
3DF101EA
BDE094B2
3D841F2A
BD135584
BCC36514
BD617F82
BE189DFA
BD626D3A
3C733678
3D203FB0
BDEC9D6B
BE387BFC
BD8D67CE
3D8DEDB9
3D96AB2C
BDCCC2A2
3E113AA8
3D59123C
2ECB5A83
BC85A340
0EC3EF40
BE2410F0
3D9D0FFD
BE465A3C
1DEA839B
BC062820
3CF9FFA6
BDF9D02A
BDF8B1D1
BE2D8AA1
BD88A0C1
BD9406ED
3DB4A7ED
3D328E34
3E045D1C
BE1844AA
3E16927D
BCF459E9
3E26FA7D
3DC8C699
BDE841D8
3E336549
BC6782B8
1DDBCFCB
3E2B105D
3D7C2E24
3D32E0EB
BCE9562E
3E3756D2
3D9FD852
1DCE1EF5
3DC48900
3C2EE0A7
3D1867F3
3D84BBDE
BD849DF3
3DA62181
BD823BB2
3D154223
3E002399
BE2E1336
BDC37667
BDE46BB8
3E006242
3E0D9D46
17501734
BD359379
BE03C739
BD6AD81C
BDF92B50
3E46BD3B
BE054728
BCD76364
3E04F504
3DE699F2
BCC13556
BDFBDF25
3E0A878C
BD477EB4
3E0D023B
3DF1FB35
3C1363EE
BE0EC0F1
BE0393A2
3E1B4962
3DFDE0DF
BD8F83F8
3E07B153
BE27D026
BD238978
BE27FD62
3DCCBD41
BDD6FBA4
3D8ABB2F
BE31AB5D
3D4EED57
3D95C6B4
3D4179B4
3DEDF6E0
3CBB22F0
BD1BB4EB
5DEF6373
BD5EB015
BE1F40C9
3E0E97AD
3DA0E0FF
3E15EB2F
3D8F335A
BCCF16A9
3E0F2721
3DB1A69D
BD9CEC94
BE0CB74B
3DC916B0
BE2F1EDF
BE0B6E28
3DA6CF54
BD01DA84
BDC73A7D
BDA60DC3
3E2AF225
3E1E8FA3
3DDDD1A2
BD301B0A
3E231E5E
BD050488
BE0DCDD2
3E239DF9
3D959095
3DF02963
1756C10C
3CF9C553
BDD518CE
3E22413A
BC001886
3E34A5DE
BE3DE4A6
BD151509
3E33F791
BE0A03F8
BD80FBF1
BDDF48E8
BD46CBE6
3D87E492
BD86C1FA
5DD06ADB
BCA7FD94
3D80FF71
3E088BE4
BD845A16
3E53D7BE
BD359641
3E171B3B
BE30D8E7
BE207937
3E0405E6
BE1746CC
3D03398A
BE0CF09D
BD783330
BD67D75B
3DE9BAE2
BE03A3C0
BD812CB1
3D54DA0B
BE217AF9
3D8FEECA
3DA0D9C6
3E3AA0CA
BDD66B2A
BD99007B
3D028C07
BDF3FCE0
3D61C5EE
5DD53B8E
BE0BDD31
BE2781F5
BDFA7505
BE2E69C0
3E094E5B
3D1B5E64
3DA5081C
3E292240
3D0AD2FF
3C9B56A3
BE10B215
BD6378EB
3C2277FA
3E06415F
BDE7BCF2
3D809060
3DA412D1
BDF0D1A7
BA36D32
3CBCE48A
3CBD296A
3DBD40F3
3DB1A3E3
3E362018
3DB92CB5
BDC5123A
BC77F16D
3DFB2717
BE20482E
BDC2597D
BE19B6F1
BD8C24D4
BE3142F1
BE287D6B
BD82556E
BD722966
BCA8B901
BC619F8D
3D5B19A1
3DEA3CC2
BDC1826E
BD96DBFE
3D1CB0D5
3CF00C6D
BD8F61F5
BD10F174
BDCF5896
BDFAE1FF
3DFAA424
3D92781F
3DEB40DC
BD024FD2
5DE117DC
1CCDB87
BDB735B3
BDEB86EB
3D2F48ED
BD4EA2B7
BD565FF6
BE0DF869
BCFB43A9
BD633B03
3E1FB333
BE05C217
3C02AD2B
BDC5564E
3CD871E0
BD2B9C42
BE0A02E7
BD694A98
BD9EE4F6
BD90B4ED
07584031
BDFA0F6C
BD2AFF93
3DDEFEF4
BE07E679
3D399275
3CCE9E04
3E0D28EB
3DFB5B95
BE1407C9
BD5A6FB2
BCDB2CCC
BE1D2BDD
3E1FF6B5
3C897172
BDD5C7AD
BE2A1A1C
BD9D84FB
BD96A6CD
3DFBB1A0
BE0991C9
BDB12257
BC95509F
BC6B06FE
3D3DF78F
3D4ABDA3
BDA5C7D5
3E1593BC
3CB17BAC
BDEA85C7
2EC67376
BCB12ABB
2EC7BB71
BC09D639
BDC25C1C
3D76D0A6
BE1A0519
BD8D7CC6
BE396090
3CD5FEE2
3D68D70E
BE21893A
BD4D63E6
3DF5B477
3E210579
BE270268
BE0F0445
BD97A725
BDA082EB
BC98CE4F
BD0EA68E
3E11E285
3E15128E
3C4CAD41
BE0BE0D9
3E2C8765
3DB921BF
BE32F66A
3D89F7E2
3E28CBEC
3D5FC6C0
BDFFF7EA
3D6000E9
3DB0758B
BDD49949
BDF1BF0F
3E00E008
3E50B4DF
BD81910C
BDAFF843
BD64E37D
BD385B77
3E0BC48D
3D88B9C0
3D628A1E
BD6417E5
3DD28112
BDED837C
07554998
BE25CC03
BD2758CF
BCD5336A
BDE9B574
1DD56D02
1DD83E8C
1DFF693F
BE2C1836
BDED192C
BDA59B49
3DD7BAC0
3E2486EE
BDD4F873
3CBC8C2C
BE16C3A2
BDD7E48E
BDE2DE8F
BE35D3CF
BCC19B06
3C6281E2
BD9DD743
3E4C58DC
3DC10E88
BE0B8955
BC7226F6
3E064E8E
5DE65F7A
0EC3CB2C
3E085F72
BE299A87
3E198CEC
BCF0EA72
3DF4B390
BC895261
0EC4328C
3D387C37
BDDA72FE
BD5A6EBA
3D843613
3E12A91F
BDAB70DF
3DA5D695
BDF9EBEC
3E1063DB
BDA2BCA6
BDF172B0
3E1671C7
3DC36440
BDCB4353
3C8CC233
3DA55154
3E0271D1
3E16584A
0753A757
3E2A723D
5DF2A5DA
3D7B94C7
3E08691D
BD8CE9D1
3E4A69B7
3E12316C
3E067F2F
3D9AC235
3E39F691
BE15AFBE
5DE078CC
3DFC810D
BC74F16D
BC9F7DD1
3DE600D5
3DB55CCB
3C088DBB
BE615328
3D12BA17
BE1C0EE5
3E19949D
BDEBBD01
3E4AEE24
BE34C471
BC477718
3DCED8E7
5DCA3FB1
5DC52FA5
BE0A8D99
3CCCDC75
BD0F64C5
BD9F7758
5DC9FFC6
BC92782B
3DCDFF7E
BE0571C8
3E27F626
BE3A40DE
BC14409B
3C4E745A
BE18CC25
3D3C0558
BDE3C690
3D8F74EE
BE0571F0
3E1C6A97
3D55FDCB
BCCFE0BD
BC8F1E9E
3DA5CB75
BC96ED87
BD389CA8
3E43EFB0
BCF061ED
5CC7BFD
3DFC1B64
3D0587C9
BE12527B
BD4AD668
3D71EAD4
BDED8959
3E1789AE
3CD8002E
BD192299
BC84F040
BC06A1DD
BDE23E1F
BE1CC86F
3DD00D52
3D8782FA
BCF1072F
BE0F01A7
3E16B8BD
3E006C46
3DE8745E
3D390C82
BE2775BF
BDE20692
3DB377E9
3CC88A32
BCCFBEE8
BDECC20F
3E1C307B
BE1E858F
3DD4032E
BDBFEBF6
3DA575AD
3D4F2D46
BDF95EEE
3E4E6759
3E341553
BD437E24
BDE617C0
3E0115F9
3DF2AFA6
3C407FDD
BDB6B709
3D5ED954
BC446540
3E0E63BF
BE2951E2
3E0B5D7E
3E12DF9E
3E06D9BA
3D9CE5DA
3D5DB99B
BD7FA08A
3D424481
BDCA242D
3E1572D2
BD47EA8D
BE28ADCC
BE0AEC9E
0E5522C
3DCBB605
BDB4009D
BE2FDC20
BD7E3DA2
3E2256A5
3DA6EED5
BDE0FACD
3D0BBCCF
BDA31B8A
3DCA4305
BDC0B538
BE1335F7
BD712EF1
BDBCBED3
3D292C61
BD52D483
3E065975
3D8C0AEF
BE17DB1A
BCAD924D
3DC2F728
1DF5A0E7
BD8AD328
3DA83D54
BDE86527
BE1D094C
3E4A45A1
BD416782
3D24E70B
3DDC1F4D
BE11A6BF
BD6309B4
BE265430
3C95C2A6
3DD2BDE6
3CE53CA8
5DE4658B
BE171BC4
3E466BDA
3E195699
BE4F621A
3CEA3C7A
BDCDE6BA
BE35C8DC
BE16D36B
BD6359FB
3D02FB5F
3E0A69E3
3DDE37B2
3E12D139
BC04859D
3E43920F
BE2E2699
3DD6AA96
3C883520
3DC25862
3E28F96C
3E20AFCC
BE21A78F
3D8A3D94
3D64191D
3C46D9C6
BDF84A82
BDB6248B
BE121087
BDFC5D87
3DFC9122
3C4474B5
3D15160D
BE1D5FBB
3D1191E6
BE03561F
BE52A3D4
3D2146B6
2EDBB8EA
3E3A34C3
BDEC709E
3E3634C1
BE3D40B3
3D9790C7
BE16659D
3DA63274
3D82DC72
3DD6545E
BDCD7286
BE0FE703
BCBD1723
BC40D68F
3E3A3860
3D5B8461
BDC5133B
3E18B38C
BDE7A7A3
3E387660
BE33F5FE
3D968273
3CE482C8
3D9E281E
3E2AF37C
BDDEE13F
3C045542
3D0C34F9
BE1DF698
3E3DEF1B
3DD980FC
1DED5AB0
BE1187A3
3D4AEC44
BDAC746A
BDD61417
BD9C05AB
BE2363A9
0ECEC038
3D82DE62
3E104B3F
1DD63A34
5DE45EB4
3E04CC6B
3E0C3698
BC8A4D15
3D8E775F
2ED27CFA
3DB81132
BCD8B3B3
BE21978C
3E1A27A8
BD343B72
3DC1FA9A
3E1A9212
BE32D4CB
3DB6DB76
BD805AD0
BE35520E
3C6A8806
BDCCBCA3
3D4C90CC
BC316917
BD3BA28B
3E5F2D8C
3E1CBC84
BE1BA7D0
BDD4F2C8
3D823E62
BE3EA9AE
3E1CABB6
BE05F616
BE1C7F35
BCA752CB
3D5A3077
BE2F7915
BE33B153
3DA9F09E
3D2E6F8C
3E169FBE
5DD59C8D
BE07A097
BD296E8C
3E20DE6A
BC72AA3C
BE1E036D
3E121F8E
1DCE6C5F
3D9FE64A
BC669688
3CB31ABE
BC6DF804
3E16AACE
BE4C42BA
BE0DF589
BD933C82
3DB873D2
3DC78D06
3DD20E90
3E21AA72
BE43E235
3DB1E27E
BE210F8D
3D0AFA26
BE0777FE
BDFA2426
3D0DC8C4
BE5524C5
BE1FE503
BD9B66F9
3E22560D
BDB3F400
3D6BAFDD
3E21259C
BC0DC668
3E0808CD
3D29F553
BD9EC0F2
BD06FF9F
BDA655CA
3DD7F6B2
BD497247
3D6E5722
BE25C341
3D1113A8
BE2DB838
3E23EA47
3CDA77A6
3E25F40A
BE19DA41
3C8C3854
0EC59B09
BDB549F8
BD226D72
3E468D70
3E35DC2D
3E14EAA9
3D26F1B1
3DF81AF9
BD288EE0
BD1025E9
3D23E413
BDCBB7C3
BCFA9FAF
3E45E70E
3D447F3B
BDCBD712
3E0844E8
3DA239C8
3DA0DB04
BDD3A2D7
BDE48095
BDEEDFBA
3C0F4C37
3DA546CD
3D7FD0DE
BDE98177
3D25377C
BD1464EF
BC9DCEB3
BE16F6E9
BDF660FF
BD2ADB75
BDDAC0BE
BDD086D0
3C255F13
BC2EF48E
BE2AD5D4
3D09845B
BE351AAE
3D5E2E2A
3DBD564E
3D037861
BE082F02
BDF7D47B
3E34E5A8
BCA6DA91
BC45867C
3CFDE645
3E28EEE9
3DA1D89C
BDDC91CF
3E1529C3
BC16753C
BCACF2C1
3D67850F
075F257B
3E2751B9
3E401E08
BDD11BC7
3D96C1DA
3E0EA522
BD9828FC
BCA63EA2
BDACBE2D
5DF6217D
3E06EE60
3D073B03
BD4AF397
3E11B864
3DEECC79
BE0D8694
BE1D0EBD
BD08EE40
BD7F8B69
3CEDC3A1
BD9D5A3F
BD4629AC
3D930761
BE274516
BDAAA45D
BDE68D77
3DA70017
BD3BB37E
3DB84A12
BD8F63BB
3E134509
BD0F5992
BE262C2D
BDC97093
3E2E5895
3DA3D0CE
BD0112D9
3D048470
BE0B8213
BDCB1FA4
3E13F4C3
3D64B42D
3D12729E
BCA99846
BE2249A5
BE2750DB
BD83EA1B
BE223F37
BE13C7B4
3DA2DDF0
BDA4C35E
BE09D307
3E1B9B79
3D3B2558
3D2F1788
2EDBC727
3E1D710F
3E167C92
3E50C7C2
BCAC76E3
BCDB59C5
3DBA2C35
BDAB7FCF
3E40808E
BD48B525
BE150BD2
BDD40B55
3D1EA2F1
BE5043C5
3DC0A115
3D807AA3
3C881652
BDD9C5C1
3D1969A4
3D28A36F
BE074092
BE2EFB24
3D73E31A
BDE38EB6
3DD7610C
BE09A1CA
BDB615BA
BDFCF16A
3DE02B56
3E36DBDA
3DC708E8
3D473FC1
BD6320ED
BE2878CA
3E21543A
3DC0CC52
3E2C7F99
BDB49424
3D99143C
3CA52C0A
BE354DAA
3D8A902C
3DD2697B
3CF03519
BCF0909E
BDF6E4E3
BDBAA5A1
BDAF78DE
3E19E725
3D22942E
BE27CF4B
0ECC925D
3DDCB82F
3DC04BCA
3DA90FEF
BE07321D
BD07BA91
3E0F864D
3CC4C261
BC3EFBE6
BD9FE88E
3DDA1886
3DF7BEFA
BDF89E8A
3E08FEC8
3DAC8FFA
3D8351DB
3E26A8B7
5DCD91F7
3DD49CC6
BD6E4394
3E071A82
BE01F3CD
BC060DF3
1DEED716
BDE15081
BE00291B
BCC2568D
3DAC04DE
3D9FF9D3
3E12BC30
BD28AB7B
3D1DD056
BD2E05F5
BD6A0316
BDB832E6
BD263228
3DEF1397
BD8F59AC
BDA53112
BE431046
1DDDA189
BCD21220
3D98C058
3E01C647
3E11BBFC
BDC35A28
BDB06B1C
BCF42A0A
BCC039D3
BD71AFED
3CCD715E
3E1A4769
BD8BA383
BD286209
1DC45A70
3D504D9D
3D93FA2F
3DA9C42F
3D2638A6
3E152DE0
3DCC89EA
3E08AD52
3D05F7D7
BC8C1354
BDAE615F
3DF31E8D
BD0273D2
BDA6CEA7
3C204E18
3DB72B40
BCB20FFE
BE484523
BE267D13
BE06D7F9
BDFA53DF
BDF1252B
BA7195D
3D1DC3F9
BD560DD9
3D52D1B3
3D4E5DE7
BD3B1D2B
3DFA345E
BDD8D590
BE0DF7AB
BDA2FF76
BD9B21DA
1DF05679
BE34555B
3DE6EC9A
3DC304DD
3D7F3650
3E3FF6D2
0EC5E8D8
BDFA301E
BE0D4446
3D114E76
3D10EC15
3E13CFF7
3E11B485
3E0A01F2
BD8A1CDB
BE1E0449
BDADC7F7
3DC017FB
3DC76D96
BDA65212
3DE567B6
BE10C5B1
3E474838
BC64CD5C
BC2A83F5
3DACEC2E
BD22E550
BCC9F46D
3DF4B950
BD0E4073
3E122508
5DD1E540
BD658066
3E16D36A
3D3D1B67
3D00D7AD
3E0A82D4
3CC2FA4E
BDBA5D3C
BDFB13DB
BE16AA9D
3D0D39C6
BCB388DF
3D76BC07
3E00E3A4
BC9F4FCB
3D89ED81
BC7B4374
3C9C09EA
BD8E1B7F
BE0230FB
3CB05741
BDAD90D8
3E0F07B3
3DCCDFC3
BDAABDA5
BDC65AEB
3DB00C22
BE218734
3DEA96C2
BE287FAB
3D5A8B8E
3D8FB6D7
3E42FA07
BE1833B9
3E15B750
BD279A19
3CE39BD7
3D6C801F
3D2EF875
BD90C4AA
BD138AC0
BE0EF9D0
BDBFDC2B
BE0DE1DC
BC906734
BD93E0A7
3D504EFB
3D220241
3E1ECB81
3DD376A7
3DAB884D
3E259DF8
2ECA2820
BE37E7B8
BC0E6FA3
3DF63E65
3DE55EF8
BE0A5DA6
3E239A97
BD966B7E
3DAD602C
175B7E19
BE42F1D4
BE1AC857
3D92F5FB
3E474555
3CBA3C7D
3D0EB7A8
3D7124A9
3DEFEF11
BDCA0911
0EDB657D
BE454D80
3E291B02
3DC10D1B
3DFE630C
3DF4BF7C
1DF29999
BE42DBB3
BE2F0F4A
BCD56836
BD84E98C
BCD95655
3DB11A5B
BDFAD6CA
3E415EEA
BDD5D914
BD76CA46
BD973022
BE0EAD41
BD07D1C6
BDC066BD
BDD6420B
BDF9117F
3E1A4640
BD22E096
3DC76520
BC798103
BDCAA466
BDFB1A41
3E16CB67
3D0740CB
3E0DC43F
3DFBE6E7
BD847E45
3E13BFF2
BA054E7
BDD96910
3E2C0E55
BD6C4022
3E17BA4A
3E2179A6
BE16F35A
BDF2CBD4
BDD5110D
3E05CD94
3D8DD530
BE07BFF4
3E29CB9E
3DDBEE0A
BE425410
3E09CDE5
BD9CFE62
BD83A324
BE0E4E0B
BDE9C5EF
3CC96DF0
3D6F1A5C
3E2075A5
3D04BA09
3D04167F
3E516707
175110B5
3DC4D016
3E2E82FE
3DBF35C5
BDEFDC76
BE5A72D7
BDA45603
3D9A6FBB
3E4BF375
3E1BD8A6
1CF6FAF
BDA0A7E2
BD34BF51
3C15BB5B
3E29AEF9
BD3DFF94
3E4A6D34
BD345928
BD96F293
3DB20DEF
3E2D292E
3DD93D4D
BDF1F363
3DB4CC61
3D594E67
BE4DF8A7
BE1AB257
BDB11B2E
3CBCFBBF
BDE8058F
3DBEFED3
BD34E29F
3E080660
BE3ED010
BD8D2C36
3DC6B931
BC125723
BDDE6F15
BD70E619
3D132879
3E092E57
3DE8A2E0
BDA59D55
3E59FB4E
3E15FF25
3DD906E1
3CF11E09
3DC03087
3DCE69A1
BE14254F
3D2C4798
3E0EBA60
3E30C0E6
BD6845C8
3C33D6F3
BDEA2AC3
BDC33594
BE18504A
3DE87233
3E1357C3
3DA7291B
0E44057
3DADBE95
3E38CC7B
BE4F1F23
3D0B3AFE
3E4B01DE
BE05CF98
3E29CA42
BCE69395
3E094ECE
3DA266AC
3DCD8C81
3E29849B
BE495A6A
3D943243
3CE2089B
BDBF5F0A
0ECE0117
BD27F436
3DFD265C
3C347E75
3C957830
3D811F94
3D709C01
BD868F4F
3E004AC2
3DD10FA5
5DD98199
BDFEBFA6
3D7EFC21
BDF3F8FD
3CD81D25
3E04CD86
3CCF6FAF
BE04510F
BDDD78B2
3E09206E
BE3C3B6F
BC8BD52C
3D66C0E4
BCA08763
BE1F397B
BDA0B34C
3DC73D2B
1DD5944F
BE1B18BA
3E082AF4
BD691ED9
BE19B341
BE187570
BE438A7E
BDE4769B
BD9DFB52
BD527981
3E0EF48F
BD97564B
1DDBA671
BDCECC09
BD295D93
BE38D110
BD7E3FBD
3E3CB6CB
3DD09719
BD5EF427
3DA2BED6
3D3E4A23
BC88ACD4
BDCF982B
BA68A4D
BC0142AD
BDD4A6FA
BDF282D9
3E1DE9B6
3CC1E173
BD882973
3C938B01
BDF3775A
3CAD49D6
3CDABD25
BD0B39D1
BDF974BE
BE177481
BD625A45
BDA2ED5F
3DBA3C83
BE1518C2
3DEA9E59
3E11C3BF
BE0537B4
3E475B74
3D98D8FF
3E02F273
BDEBEAE6
3DA1CAF3
BE0E6222
BC9D924F
BCD235F9
BD8147D4
BD898223
BD538E30
3DE8B011
0755E544
BE146519
2ED93FD3
BDD6EEBF
3D4CA549
3D07A26C
3E1021E9
BDE10771
BE044EE3
3DF2425E
BDBF6449
BE2DA285
3DEE6409
BDF8C79D
BE245A27
3E0AD827
BE322BD3
3DA6CDF2
3E25A56B
3D88514D
3D0AF249
BDA4690C
BE37D3C6
3E07983E
0ECA2E86
3D9FBE52
BDBEA92F
3D2717D7
3DB6BE7A
3C2139AF
BE0D1174
BC1E0654
3E0619D0
BE006B8C
BE151955
BD286599
3D209133
BDB5E0D4
5DD30C83
BD60FDF2
BD6373A5
3D281FB0
3CD80A93
BE0EEEBF
BDC2D4D1
BDE159D1
3D21A348
BD0CC5E8
3DD810DC
BE16BE98
3E0CCFCA
3DDB3F1B
3CE0865C
3D17FBFF
BD8BB6CA
3D03EE45
3D3B23E6
BC29DA5E
3DD1D761
BDBB1CCB
3DEE9D14
BD6E2182
3DA6A33D
3DA29431
BD52F482
3D2F65FD
3E1E1E67
BE04AAB0
3CEE17A0
BC20B976
BE3996B3
BDBA3776
BD52D6AC
3C58C4EF
3D1FAA6B
BE0CF142
3DF9F748
3E0FA7E3
3DB84B33
3E09552A
BDC211CE
BD0CA2EF
BDBE61EE
3DB62F27
BD32E07D
3C316907
3E2F1B00
3D347416
BD0931B3
BDE41711
3C25D490
BC085740
3E120185
BE20D73E
3D71901E
3E0D83E4
BE03E02D
3E21D10E
3E3E8290
3D81FC7C
BE0B80BD
BDA75289
3D351C8B
BD1508B6
3D1E62EA
BE03DC7F
3D242997
3DCDA38B
3DCF49A5
BD38A1C0
BE25DAAB
3D51BA36
BCADD6BB
3DF227E0
BE1BA1BB
BD880EEA
3A42200
3E0E952B
3E21860C
BDC20AD1
3D66DAFC
BC23D3A5
BDEBFA3D
3E2FCFD3
3E01F26B
BDD09A7D
BD61F781
3E1D5C07
3E0BBE29
3DB3C284
BDD93157
3D9C9720
BE3140A1
3DA8B7C7
3DB61D70
BDDB6434
BE3A3571
BCE24130
3D1CC831
BE1938FE
BC385599
BDEF091A
3D16C630
3D31BB2C
BE178A0F
3D0475FC
3C25E119
BE38A272
3E0C0C3A
BD5F1CD1
3D953B94
BD6BFA05
3E006F3E
3E0E928C
BCC5B783
3DB7DD96
BDF1F135
3DD0C998
3D96A96D
BDB4F622
BDA5F815
3D3A6585
BDFDB54F
3E1B1BF3
3D431804
BCD39EE3
BD32CE01
3DF1EA74
3E15DD6A
BDDCEE41
3CFCECD4
3DD43DEF
3E359D07
3DF3BF6C
BCA88BD1
3CF7002E
0ECB0B36
BDFFAD95
3C0F968A
3DDF36C2
BE2D9CD3
3DB3409E
BCD02EE8
3DB40DD0
3D78D96D
BDB0B1F6
BE328DD2
BD804056
BD9AC66D
3DA8B9AA
BE0802EE
3C3C5C96
3CDA09E8
3DA1DE2E
3CAC74F8
3D25B899
BE1C42D4
3CA2C880
3E0D49DD
BE308C29
3D8D7D06
3E0E4E27
BE0EB88B
3DF14747
5DDBE680
3E0CDA3E
BDDED007
BDC41747
BE36323B
BCCB5A23
3D3F80F3
BC6A8A33
5DE0C101
3D9A1948
BD340509
BDAC181F
BCF5E826
BE24AA83
BD2D13CD
3E08F775
3DECE59C
3E37454C
BDF5032C
BD69B735
BD9CF9A8
BE08149D
BC81AE5B
3C98384C
BE0C9EBF
3C9D7340
BE1BCBB4
3DC2CB17
3E0A476E
BC5998FB
3E238F26
2ECD26CB
BDD857C2
3DF06BF4
3C989B72
3D721C39
1DC4B321
3DA4A3F0
BE3B5397
3DF15D6F
3E075CBE
BDB77FE3
3E0C8AB4
3DE22312
3DF95AC1
3E38DDAE
3D8744AB
3DC25181
BCB2CCEA
3E1F5CA7
5DF619C6
3DB8E793
5DFF90BB
BD7D3B68
3D240F0A
3D31D484
BDAF8946
3CB328DA
BE101223
3D93A934
3E15FB21
BDED3107
3D6CD0B3
3C769257
3D1CF6F3
3CBBC806
BD624537
3DEBDCC6
3E0091E7
3E27161A
3CD08F6B
3DFD250F
3E0F01F8
BD28F37C
3D3BD04A
3DCCBE43
3E28CDCA
3DE31C9E
3DC47064
3CAFCE5B
3DA26BFB
BDFDEF76
BE1E13B8
3DFEDCF0
3DF834BD
3DC493A2
BCCC329C
3D32DCA9
BE20313A
3DD0717B
BE084FFA
BD13CD70
BD939BCF
BC70D360
BE2BBE14
BDBA023C
BE190C3F
3DD5C3B8
BE298C72
3D3D5D7C
BD377D1F
BD5566EB
3D36FB80
3DA640A1
3E15B61D
1DC57B34
BE0FB48D
3E0A908C
3D93E4FA
BCBB3C98
BCAC1656
BE0ED729
3DCED104
3E23AE5F
3E30C3D7
BDEDCA66
3DAF4AF8
3D991D97
1DD2C098
BDE88D20
3D4D2AB2
3E2AE6C1
BCCD4F6E
BC2088B0
3E1EC77E
1CD74F6
3C189224
BD588BF9
3C8709CA
3C2D1533
BDF47E6D
BD7EF6AA
BD359627
3DB9A11C
BDF8DEBA
BE3FC0BC
3E4249C4
3D3E0941
BD51E7DE
BDEFB834
3CA871DE
BD23C36F
BC31C9A3
3D9F2AB5
3DA2FF09
3DC8B748
3D58B36D
BDE4617F
BD7FEE88
BCDFA084
3DC59EBC
BE44F745
BD7EAB8E
3D9C401B
3DBF89BB
BDC0B331
3E230A60
BCFFDB57
BDA16CF9
1DC90303
BC006F5D
3E05BD46
BDF296C7
BE08C832
3DFBC5E7
BE02E4B2
3DC524C3
BC1251AD
BDF64341
3D84C1FD
BD8A62CE
BD290FAF
3E045FCC
BDFF6149
3D820334
3D4E63C9
BD8A1A5D
BDCDAFF6
3DF1CC88
BDBF63BD
BC870FCE
3DD2EF11
0ED27226
3E39CA1C
BD430CA8
3D168A0F
BDA0AC06
3D9249DD
3E112EA0
3D28A0DD
3E04AA09
BDA4DB45
3D9BD851
BDF2AA9C
BE29D5AB
3E2C71EA
3E25E941
BC902EC2
3DEA4CEB
BD4F792B
BE0871DB
3C968E2F
3E2C0CFC
BDC0BE26
3D9A2A67
BE15F639
BE22E919
BD013FD4
3D6C9FCA
BD52EA17
5DFBFB31
BD1B23C7
BE0340D2
3DE2A38B
3D276FF2
BD79892B
3C11FC94
3DF1DE33
BE0357C4
BE13B1FD
BE1F8095
3DE83FD5
3D99CE20
3C692315
3DD3F0EB
3E2B6106
BD89D37B
BD9F828B
3E1B77C4
3E2E8841
BD30CF4C
BDEC44E9
3C54EAEA
BDC3976B
BDBB2979
3CC09C76
3D967E79
BCDD20EF
BDB49423
3DA84116
3E1BABFC
BE3AFC5B
3D86B9EE
BDEB9FF7
3DF0A4B6
BD1FA72F
3E0B9D59
3D137BFF
3D0F03A9
BE215E89
BDC53CFD
BDA035EA
3DC60870
BDC848F2
3C7DF64C
BC972550
3D516F3A
BE2E014B
3D1D1DF0
BE227785
BD0DCC69
BDC6E6C3
BE0CBBAD
3D35C852
3E14F857
3CEAE618
3D871CC3
BD4FD48D
BCE05988
BDBB0E54
BD23D743
3D98B10B
BD3D187A
3DA07732
3E27ACB9
BE335D18
3E344926
BD66F0C7
BD9C3ED9
BD6D2DD7
3D517C3A
BE2A2DB8
3D70631C
3E1D845B
BDBEB3E6
3D09DB5B
3D20FFD1
BD33EAA0
BE1A80F5
BDDD4EC9
3D12BC1C
BDF7ADC8
3DF50B04
BDD5B16A
3D9472CC
BD7C994F
3E2830C3
BE1C9ADF
BDF97A97
BD7C3574
3DBEE220
BE120A09
BDCD70E8
3E4573FE
BE25A543
BE39DAFD
BDBB14AC
3D73E84F
BE14F172
3D5D3EC7
3D832E7D
3CADF0F1
3E2503FE
3E2A4E9B
3E163178
3CF398F3
BE2AD8FF
3D45239D
2EC03EFC
BE0B98A2
175CAA93
BC8B9A5D
BD9C095E
3D5E3287
BE099319
BD3243F8
3D45663E
BDE7E1E7
3D81471D
BD2F3D5B
BA497B3
3DA9B38C
BC67AE28
3D7D2F18
3E4318DE
BDA76342
BDBEAA66
3CB19DC1
3CC403F1
BDCB98C1
3E196FA5
3E00E978
3E0C784F
3C7D7F11
BE1B4CFB
BCD394E3
3CA5165D
3D3541B7
3E33DC8D
BE3E71B6
3DEDA5C6
BE7113DF
3E2E429A
BCE33E01
3DD2530A
3DC647A0
3DA2900D
BE09F9BF
3E0AFD0A
3DB44DC2
BE12168D
3E2D6497
3C07EC4E
BD95A55B
3DFFA2D9
BE32A65A
3E0C631D
BE27D9C9
BDD7E3ED
BE17D8DB
BD1BF28E
BE4D893F
BD946980
BDDB8E4F
BE0865D0
3E1F303B
3C263B1E
BD513C86
BE3083B5
3DAC9A6E
3C72AC81
0750C87D
BD820662
BE236E7D
3E2C6432
3C8E0DD7
3E03880D
BD7D42EE
3CF4D36C
3E1B7D99
3D0A24DF
3D420BA1
3CD917A5
BDEFBA71
3DCEA5BF
3DF5D642
BD12FCAB
BDDB9074
BDE9D9E1
3D21F7AC
BDF30105
BE125274
3E0AABF3
BDDB3E0D
3D969184
BE215CFB
BDFA819B
3D464BA2
3E04D9A9
3E0419AE
BE08D372
BDE86C19
BE2F39A3
BC292DF4
3DB3B916
3DF5D332
3DEC7B10
BDA4C99D
BE383938
BD4A3450
BE03FD21
3DF79594
BD4E2138
3E54D8F7
BD4FF722
3D1EBD80
3E0387A8
3CF0A33C
BDA1E6FB
BE43AA40
BDEF65EA
BD49E447
3E26A49C
BD81177A
3D88D784
3D26FA63
BD1544AF
BE06F2AD
3E2A7C63
BD70C7B5
BD982044
BDC6EC69
BCA0E97B
3CB0344A
BD5671EE
BCEC37EC
3D83DCF6
3E311EE6
3E31C921
3C4627C9
3DCB7E05
3DEC4B10
BD88368E
3D4CC12F
3E362879
3D9B2E11
BE106CED
BDD45326
BD2647D8
BE450581
3DD88029
BE1839EE
BDE7580C
3E18647D
3E1CF866
3E3296D2
BE12DCDB
BE3CA70A
3D2BCC8E
BE4728A8
175BE491
BD482D73
BDB93124
3D8C300B
BDFD2EF6
3E0501BB
BE2A0E4D
3D9CFC14
BDEF065F
3D7CF1FE
1DC7E597
3DB13A66
3DBFA7F0
3CED4D49
3E153D56
3E1EE6A0
BE3DE1DB
BDAA5478
BE11032B
3D8E2E9D
BDA7293F
BCD2E713
3E15A8B5
BE3278BD
3DCAAF36
3DF1AA20
5DCA30BC
BD757838
3E02FC43
3D735929
BDD3BB5E
3E219DB8
BE1BC1C7
3E36D1D4
3DBD0045
BD107D46
BE3A76C4
BDA8BA16
3DAF0ECE
BDB9D829
BD864879
3D40468A
BD6AEA2E
3D89C9AA
3DBFFB9B
3CF620C7
3DD923FB
3D0AB931
BDC0861B
BE2AA379
BD84F09C
3DD01782
3D9C77BD
3DBBF68A
BE32258B
BE162910
3DC33501
2EDE2CBA
3D548985
3E18B8E1
BDE64E5F
3DD81CB1
BE0732A5
3DDF9370
3D824CA5
BE394FAF
BD13AE63
BE28ACE8
3E2F7B91
3E00DB36
BE4395AA
BE20E81C
BE080842
BE15965B
3E3317B8
3C1014BE
5DE3136E
3E1FDB95
3E289B2E
BE17D8DF
1DDF0DF4
3DE0E6AA
BE1D0D9F
3E321FF8
3E063A37
3D27F595
BE30A257
BDCA3405
BDCF3F81
3E0FC3E0
0752BCC2
3CDFBFE9
BE361965
BCD39598
3E348A46
BDF1A9CC
BE1C6E4C
BCEE47DE
BD3FE6A4
BE2ECBF1
3E286356
BD6A3D91
3C6BB434
BD160B19
1DEA040F
3DE3EF22
3D8EE912
BD84AE11
BD83E1CA
BD5548FD
3D85922F
3D95156F
BDC2AFD7
BDFF3C58
BE07D441
5DC27926
1DCA625A
3D9AEE4B
BCEB59D0
3DAED62B
BE225B39
BC2102CB
3E2E8C05
3D3E081C
BDB2FE56
BD51AFBD
BDCEB23B
BDC53332
BDED5D5A
3D3AB5C9
BC7FB4E4
3E23781B
3CF92359
BE2B11EE
BD4E3743
BDC2C165
BD0C4CB9
BD8145F3
BDE400D8
3E4B46F2
BD94DBE4
3E3E6174
BE15FF81
BDFEACC5
BD9AD138
3D979EFA
BE1C3225
BE2AC2E5
3E3FD316
3E2BFAEE
BC0F6C71
3DF1BC23
BE3EE06E
3DCE0A45
5DC66F6B
BD0CDED3
BDCD16E7
3DBBEEB1
BA2F13C
3D84A5F9
3DD34A68
BDB68174
BE58FB8C
3CF1C89B
BDED0D3F
3D3F6BEF
3D795F34
BD2AFFD7
3D323E65
BD71ED1E
3DB178DB
BD8DD19D
1DD7FE0A
3C8D89E2
BCD9C083
BC19C5FB
3E43E4B2
BE291B53
BE0B2ABA
BE3C9C44
3E2E6A2F
BD9167E5
3D6037FD
BCC437AE
BCDEDB53
BC5DEB81
BD24D1F1
BDB70497
BE0EED67
BCC4EE3D
3E1C8F1D
3E0C29D6
0EC49995
BDDDA513
3CB835E4
BE42630C
3DF4F152
BD216DD8
BD24EE2D
BD0A2843
BDE10593
BCDD408B
BD5FA2F4
3D83D092
3E3C00DF
3CFA0A36
BE0409B4
3E35E267
2EC40F9A
3D84902F
3DA7700A
BDDD8A4E
3E1CB3BC
3CF38D32
3E3B97FE
3E17E3E0
3E1C78A7
BCAD28EF
BE12F678
BDA09980
3D3AD4D9
3E0FE6DA
BDBAE0CF
BE01645C
BE02E5FB
BD5F712D
BE098052
BE33E0E6
5DE2A500
3DC719DC
3E10E55D
BDA9ABBA
3E06722F
3DB524A9
BDB0FB99
5DD82B21
3E2F0595
BE279BC8
3D8AE5B5
BDD3D604
3E0DEB52
BD6D0DC7
BD02FB08
3DD3CA85
3DDD1DFC
3E14B550
3CEDC77F
BD8E9B29
3CE172F9
3D446CC8
BD2755EA
3D0D13D0
BE102D1A
3D719CA7
BD637F05
BC222858
BDFBCC77
3D9D2672
BE1BA9B3
BC3CABE3
BDC17C6C
3E0503D0
3D8C337F
3E0CBE9D
3E2C246F
3E1F92C5
BD6EAD72
3A41DAF
BC30DA85
BC960C79
3D63C002
3DEB0AC6
BE0C5FA6
3E3AF55F
BD769C76
BDD0F76E
3DCD4783
BDE2DC39
3D71CECF
3E28EF4C
3DFF80FF
5DC69631
3CA81660
3DB766BA
BDEE704F
3E38C9F0
3D8517C6
3E2DD65F
3D995ABD
3E1705B0
3DD639F0
5DC732EF
BD8B0D93
3DA9E807
3DADEC0E
1753892C
3DA76106
0E44BE0
BD36072C
BC593D8E
BE2404FC
BD6C0ED2
BD89BB5C
3D900210
BE483FAF
3DEFA44B
BE2CDEBF
BE16102C
3DA5A9F5
1DEED616
3E094823
3DC03A40
BE345B27
BD1A7C49
3DF49FFA
3DE4547D
BD33E8EA
3E19E60E
BE10A3DF
3D553C37
BE2DBFF3
3E08A8E4
BDA36302
BCA7983D
3E10F042
BDEECAAA
3E243F0A
3CB6F759
BE1A4F4E
3C27AC5C
BD9AF5AC
BE1AD553
3CDD9894
3D7731A1
3DE68454
3E2CFBE0
BD0D93DA
BDD3A216
BD2C47E0
3DA005DD
3C2958D9
BCAEFCB4
BDEC9FC8
BE19305A
3E18C574
BE32F274
3CAB2230
3D8C95D1
0EC3007E
BDA296D8
3D5E6D87
BDA333AD
3E14F760
3E235927
3E023F48
3E2ADCA6
3DFA32EA
BE211BD6
BE389A0B
BDBE39A2
3C9C29B2
3E0AF4DA
BD9CA182
3DE120A3
BD819D5A
5DE3FB8E
BE27CEEB
BCB380CB
3CDA2267
BD7E1027
3D97327A
3D049B8F
3DB4F600
BE3D5204
3CE2A4D7
3DC0C182
3CD58BFC
BDEACED0
BE40BCF3
3D30BC01
3D957F9F
BD1F3BFD
BD4A6180
3D9FBC9E
BE0C187E
BCB24584
3D66412E
BDCA1569
3E252A0F
BE0CD2C9
BC5EB01D
3CBA4DA3
3DED5274
3DE55C97
3E021D3B
BDF2DAB8
BDA51CF6
3E02EC2E
BD884335
3DBC023C
BCDB8EEF
5DD046AA
BE07E959
3DCF32A3
BCB6DF1E
3D7286E2
3E356A46
1DEB1262
BD4978B3
3E2992B0
3D13E4A2
BE0BE26D
BDCBDE92
3DFC6DFE
3E0B0071
3C5165C7
3D92E64F
BD5FDA0E
3DAB1175
3E120112
BE4CD8B3
3E4BC8A2
BE026A4B
3E06D864
BD9EBF3C
BE357807
BD5ACC95
BE34CB5C
3E34CA5E
3C36B254
3D9FEFC8
3E17875C
3E0ED496
3DB3F8CC
3DBD45B4
BD6F7AFA
3DB06CF9
BD8ECBF5
2ED7D252
3CCF8CFA
3CF6FFE1
BD8BED3C
0EC3A469
3E44BF84
BDE48F6A
3DE8AB43
3D364B2C
3D3A61EB
3D998752
3C1232D9
BD8AEAF6
3C097D6D
3E002BDD
BDDB4651
3DC344E6
3E629F9A
BDB712C0
3DDFAB57
3E1A36BE
3DE0A8D5
3D74B73C
BD14D823
3E0F45E1
3D719559
3E23400D
BE140CD1
BD7025EE
3DEACF68
3E378DB1
BE218204
3E1027A9
BCEE9754
BD020AD2
3E296147
BC8B0285
BE2934EC
3E399E9A
BDE49F6D
BC125775
3D91643B
3DCFA9DE
BD71B354
3C8BA6DB
BD8EE490
BE093C76
3E2090CD
BDD2F5E9
5DF32873
3D7A44E5
BDBFB907
3E4AE83B
BE0DC713
BDC19FB3
3DF63E44
BA66C74
3E0A35CD
3D00747F
BC275D97
3E1A0AC7
BE5C07E8
3D78C5B5
3D1E6218
BCE471F3
3D6EB546
3DFEA09F
BDA7D40B
BE032D1E
3DAEBD83
3DD69881
3D5A0D67
BE31FA65
BCDD9BB2
3E0929B3
3DB61B7C
BD8FB2EC
3E11645E
BDB28FC1
3E2BEB3C
3C8CE915
3D97DDCF
3DEC2ABC
3D54093D
3DB70835
BDFEE1B0
3DB901B8
BE108C63
BE4D718A
BD8D6B3B
BD9A5AAD
BE035FE9
3D1C1112
3D4933B5
3E336B89
BE17FAC8
3E203436
BE069A5B
3DB7E0A5
BE2F51C6
BCC36D99
BD8BDA21
BD83509A
BDAB1D5E
BE05EA8B
3C23FE88
3DF3EA78
BE1822F9
3DCCBBC5
BDF63719
3CDCF780
3E019EBC
3DA93466
3C397276
3DF93A97
BDF4E866
BDCB2CF6
BCF2C7A7
BDBF7442
3DD8FBE7
3CED5F77
BE1B4846
3DE172FD
3CCCEDA2
BDA4750F
3E2B2CAB
BDEDD464
BDF20FB4
BE31BAC4
3E3A0866
BE039F6A
3E08DA16
3DC1F536
3CFC9CAC
3D64F75B
BE37BBA8
3CD92998
BD1DAB07
3C88B396
3E54DC72
BD711D0F
BDBBB4AD
BC269D6D
3D4E802A
3E1133DC
3D819A3D
BD42A941
3E17315C
5DDCBC0B
3E08F88C
0EC13E7E
BCEB5EE2
BDCF04F9
3E2391FE
3E207B6C
BDE081EB
3D9D1819
3D4D4C90
3E15A5B4
3D5BDBE6
BE13548C
BCC8D336
3D914796
3E102EF6
3CE2FDB8
BD75C5EB
BE1844C2
3DBD9461
BD861BA4
BE18E9EA
BC1D0CEB
BD1BB326
3D9481DA
3D133260
3E309144
BE32F328
BD58C51A
BDA3E13D
BDDCF235
BDDB9C35
BDD31685
BDBA99F0
BDA958E8
BC231CC8
3D8D558D
BE336DA9
BDB52697
3E036CB2
BD4F5FAA
3DD17BB0
3D63B569
3E2734B8
BE198A89
3CA23271
3D1C43DE
BE0B7E01
3D0E606C
3D82C3F4
BDBD5552
BE16608C
3E05C610
3DD85DAE
1DCDDC1B
3D0956F7
3DCB43A2
3D1D51ED
3CD5A819
3C1FE559
BD5A0C81
BE42A327
3E40D216
2ECC59F9
3D9C885D
BDF3A260
BDE0C0EC
3E043BC0
3DA4D968
BD80CFBA
BD5D31FD
3D36123F
3E33068E
BE567454
BDCC8536
BDD29BC6
BE0F59FA
3D4DBFCE
BD2BFD48
3DC6EBE5
3E0882CD
3D414CBF
3D1CE31F
3E302D54
BD2D900D
1755A588
3CB3E42B
BE305F34
3D78080A
3DAC8C2D
BDFC13FF
BD924D28
BCB2F08B
BE156909
3D33E4E3
BE122EFD
3D19AE2A
BDDB22F8
3D8B0D27
3E29DE91
3DBEE1E4
BDAF0393
BD37D1AC
BD5B7EC4
3E3B71D3
0753B4C7
BDDC4BF5
3D80714E
BC551A3D
BE1BECC5
3E1F0B53
3E211798
BD89C9C3
BE0D35A6
BDFD11C4
BDF7AFD8
BDCD58AA
3DEFB8C7
BD55CE4A
BDB836AB
BD8533D8
3D73003E
BE30E54A
BDFFB3DE
3DAAE6AE
3C2EC18D
BD947B99
BDCEC232
3D3AB451
3E3B1BE3
3E0DDB51
3C90A8FC
3DC83661
3DADA9D2
0ED08E8D
3E092BA2
3DA558E8
3CBE1977
BE13D637
BE0CDB2B
3D77C94B
3C950678
3D791808
BD4239BA
3D985D09
BD1C2093
3D379E8A
3D645BED
3E39EEE2
BDDA4A07
3E1D01B9
3D391119
3DF62050
BD079964
3CED6D75
3D7A94CC
3DF324BC
BC4EF148
BE25BD6D
3DD15D90
3E1B19E6
0EC31440
3E3B2E8F
3E028BAE
BE40CE89
BDBE786E
3D9B999C
BC0A56CA
3D514454
BE131D5C
3CC59816
BD816EDC
BD2B3B1E
BE1D9DF7
BD6DE33B
3E0ABDCE
BE2842F6
BE1C1596
3E36A1F1
3D67AF26
3D4218BC
BDB26D53
5DD62F4D
BDE4B928
3E169B6F
BD9FF1DA
3E151904
3E044193
BC612283
1DDE18CB
3E436F95
BE52A52D
3DE66838
BDA1AF96
0755A4FD
3D4D964F
3D562638
BD8E808B
BE290DB5
BE40D117
BC72E75C
BE172A50
BE11A9EF
BDD61F1E
3DEFF339
3E09FDC9
3E502560
BDADE7FE
3CA39FC0
BDD1FA09
3E07F274
BDDB0739
3D7BB406
2ED30842
3E144541
BD4F9B93
BDC5C4DA
3E01F36A
BDEEB667
3D921B51
BD9A2FE2
3D0A1528
3D2E63DF
BE0175B7
BE2569BF
BE282FBB
BE056731
3DF15663
BD85BE5A
BE2F7FAB
3E249DBB
3DB1DB36
3C327FB5
3DD82170
BDE85C34
3DB2A402
3E1290F4
BC03031A
3D8F41D2
BD4838B2
3E5429BF
BD671657
3E4595E9
3DE5C0FB
3D609025
3CA65864
3DA6E790
3E28D211
BE439591
3C776A91
3E11D516
BDB310F8
3E128F70
BDD8E3F0
BC97AC99
3E0EDDD5
BE1AFE24
BDDFAD43
3D7A0584
3A32A17
3D16525E
BE08633D
BE0AFC15
BD90ADF0
BE181FBC
3C23E8EA
3E172B9D
BE1DA551
3E12A3FD
3E029740
BD6472F8
3D1CEB63
3E24FE1E
3E4C698C
3D5367F7
3E292D83
3D7E7601
3C119341
BD1978E2
3E05631B
3D1E7B06
BDBF0CBD
3DBEA6FF
BE089B1E
3D9E1126
3D9CF8B7
BD94775A
BD363B0D
BD9E0A2A
BDE3B106
3E090D37
0EC6B277
3E0F458C
BD65D5A9
BD40FCC9
3D0DAF32
BDE9B0C7
BE2860B9
3CCB703E
3DD9721C
3D716E04
BDBA5CEA
BE041FB1
3D11BC01
BE0C8896
3CEE0DEA
BD4654C8
BC0C29E2
3E20675C
3DA3CA59
3E2EA861
BDA62BD7
3E16EDAA
BD9923AA
BDDF64AE
0E5AAED
BC0CE541
BDC081AB
3DFFAC52
BD8F7508
BD091721
3CD40F1B
BDC1FDDA
BE35F117
BCDEAF15
3CF1338A
3D6B0EDE
BD95C54E
BE0299C0
1DD816C6
3D4C0D4D
3D357309
BD5960B2
BD9E0137
3D1C26B4
BDFBB580
BDDF3656
3DD517F6
BDF7DC45
BD01DC80
BDD3D487
BD888FC3
BE1D45B7
3DC2CF7F
BE24273E
3E01A0B3
3E0E5D44
3E249BA6
1DC9E353
3D152655
1DFA49ED
BDE0BE1E
3DD3177D
3E1968A8
3E0F83BF
BDD4CFEC
3DD86CD6
BC7F8D72
3D85AC87
BD69856F
BA3D80F
BDF1DD93
BE0EF90F
3E1C6722
3CF986EF
BDD3886E
BD76D7D0
3A3265A
BD7BB0D4
3E27C430
BE262129
BE261649
3D6DFA97
3E2AC878
BD416EF2
3D680C2D
BDDC2855
3DD7D04E
3DFF3CF1
3D1F864E
3D65007C
BD142F09
3DA23278
3E313F27
3E0EDAD3
3E2A9B21
BE1E8120
BC060470
3D06DE07
3DE35A7A
BC1B9465
3E39B24C
3D063DFA
BE10B6DD
BDE4FBED
BD8924C8
3DF04309
3E263D8B
3DD95963
3D6E5F9B
3E103BB5
BD824974
BDAE8D77
1CD9C3A
BE2CD684
3DB61F4A
3E1888AC
BDE3888C
BD6449C0
BE071747
BDB25BD2
3D8DCECA
BE1BD6CD
3D03DD71
3DD81171
BE3101AF
BCB0D7BD
3D2F9BDD
BD35585E
BE235B75
BE15F739
BE073224
3CA2B4AF
BC6BDC92
BE0EC07F
3DE40BC4
3E1B8A7A
BD8694C1
BE010860
3E30018B
3C959434
2EC0C46A
BD5D5F2B
BE0902A5
BE250551
BD9FB981
BCB2DAF2
BE03D732
3DA71A9C
BD05C000
3CBBEF5B
3E0433B0
BCBA36ED
BE1036F4
BA1A7F7
3DDAB3D7
3DCA8B45
3E4B5D50
3DDCB954
BDC69548
BDC1837D
BD31A88C
3DA6CB48
3CD15755
BD2D802E
3DBA4A3B
3E264B68
3DF45E4D
3DB61B71
3CC74E82
3CFD1721
BDF3E5A6
BDB4EE14
3E0BA8A4
3E29F711
3CFE8913
BE01E0F7
BE2EA751
BDA2764F
BC8BEEB7
BE09A1DE
3D8FAB1E
3D90FDDB
3E3E75D2
BD4AFDEE
BC07C841
BE29C93E
BD2ADB8C
BDCBA0BE
3DEA1848
BDBD641B
BDBC8820
5DE1FEDB
3D1534E9
BDD59F09
3CA56F0A
3D04E6A8
3E30C5EB
3DB2D6AE
BD2B20AB
3DD2AEF2
BD63C946
BE1F965D
BC9613CA
3E060DBB
BDAAA0F4
BCB5A2ED
BE0059D7
3E186735
3CC4EB83
BC15F2F6
3D22C81C
5DF71B5D
BD4A3C07
BDBA3542
3D820C5D
3E31D48F
BC99E783
3DBCEF19
3CDA385D
BCE7310A
BE3EB06C
3E150452
3D7B9579
3DB55409
BDA4B1E8
3D8C176C
3E376EE8
BDA2DCC1
3E28A5D6
BD482C38
3D80C493
3DF966F6
3D2FADB3
3CFC15F8
1DF4236A
BD1E7787
BE155D68
3E05DB3D
BE48E0A1
BE406898
3E2015E6
BC8CE73E
BDF17119
3D89FAD8
3DE6B25E
BE21248B
3C8DF557
BC62A3CF
BCCD3211
BE0D9C7A
BE17269C
BC558692
3DC4A0D4
BC551F66
3E09B8E5
3DFED533
0751C4E1
3D6DF553
BE1586AC
3DD9AADD
BE2B81D4
3D52AC2C
3D1BED91
3CBC4964
BE31F9DC
3CAC6599
BE047A0D
BD74F97E
BCFE3997
3D9AEFF0
3D3C5ED9
3DDDAC36
3D35AFD9
3E213EFD
BCFDF7F8
3DF48388
BE299A24
BD938145
3DC11A4B
BE1B8187
BE0A051E
3E22A33A
3E234BCE
BD1ABEDA
3E1EA54C
3E391889
BD32A230
3E224749
BDFFC828
BE1AE89B
3E2FB290
3DF0B491
BDB6C616
BE04BADB
3C470D49
3CE06A39
BD9186A1
3D3A1735
BE0935D4
1DE95AA9
BE31DEFB
BE2282AF
3E094A93
3E1B83C4
3DC7AFB3
BCF96ECF
3E17A29D
3E026316
BC375EB3
3D3640AF
BD6CD7D6
3D6200C0
BD9B02AE
BDC10500
BD14F55E
3E09C0B4
3DB5BB48
3DED5C78
BDEA33CF
3E38CE6E
3E28C714
BDAA9C5A
BDB2615A
BD7336A4
BD0B7800
1DF5B387
3DCAE14E
3C98DF0C
BE2CEC4C
BDDD0472
BCD275AD
3D85C90B
3E199825
BDD83990
BDA7A58B
BE379C44
BCC71A5A
BD30EB11
BE1A84F5
3D0185C5
BDE5E349
BDD4AC04
BDA56D2F
3E08E303
BDA2486E
BD437141
3E4D8710
BD6BE71F
3E1E2954
3DD26130
3DD6BF5F
3CB497A4
3DC2D6BE
3D886490
3DBCAAB9
3D89D0C7
3E08736B
3DD7933F
40C00000
3E152E46
3D456FC1
BDD08DEF
BE2BFA70
3E322D31
BDC9CBCC
BCC10137
3DAAFD06
BDD235DD
3DAA7226
BDC5FC9B
BDAF4DDE
3D8C4EC0
BE267CBB
BD3E597C
5DE1F4F5
BD91145D
BDD68B8C
3D865F96
BE265698
3D98570B
3E2783D0
BE26FA47
BD073DA0
3E13956B
3D42EC98
BDCE83F0
BDC66762
BCB32BBF
3DF22B10
3E3716C9
BDAE4F5A
5DD2ACAD
BD9DC78C
3C5A2077
BDDD4C7B
3E028E5E
3E30AC8C
3E1F2CCA
BCC9DEF7
BD643AAE
BDD3A0B5
BDE564EA
BDD0CAAB
3E3EED99
3D8BB207
3C278A1C
BD3755DF
3DE9DBF7
BD0B44C9
3E2AEE4A
BDDFFD89
BDC5936D
3E1C2F3E
3E1CAD61
BCDBC361
3C71F2D4
3E18DB0B
3CACECB9
BD074AFB
3DFFD34D
BD821F94
BDC411A2
BC700EBC
3D25146E
3C4D9FA5
BDA8D6E7
BE1AAE89
3DAAD9DA
3D9DC964
BDF52E30
BD5F7466
5DE4C11A
BD86222B
BE12882F
BE067A74
0ECEA58C
3DF1D0B9
BDCC83D2
3D4E54E8
1DCD02BC
3DCE4E04
BCEFBD63
BE450016
3D90DCAB
BE16BCE5
BD18A0F6
BCE6E206
BE270957
3E2822C0
1DC19B45
3E201614
3E2412C4
BDC4AD1D
3E44575C
BC136667
3E464034
3E321AE5
BD7A4455
BD269336
BDC232AE
BDC61395
BDBD635C
BE0C49AE
5DDE7159
BD085704
3D84FD50
3CD790B4
BDBEBD6E
BE3EA5CC
3D3BA08B
3D80EF56
3C89CB47
BDACB4B8
5DF6FBB8
BE2C33C9
BDBD07B5
3D57BC7A
3E18EAF9
BE02C722
BD50783B
3D9D50B5
BC4025FC
3DC1D197
BCFEE3E2
BE1ED6FF
BDC16A3A
BCBB7877
BCAFB07D
BE3D7965
1CD42F0
3DC97179
BD2175DB
3DAA3828
3CF48626
BC8E090B
5DC80C4D
3DE14C86
3E35C286
3D3BCC49
BE157B57
3E23A915
BE3193FB
BC7060DB
3DE6C677
BE4493BD
3A089DE
3DEEDFD1
BD66CD5C
BE18F2EE
3E33B171
3E014FE3
3E0A56F9
3DF803F4
BDF02E07
3CB1AF6D
BCCC48B3
BC4CE747
3D3D9204
BDB1257E
BD0FBEE6
3E34F8DB
3DE89919
BD6A6387
3E2799F5
BE1D474F
1DD97FD2
3D8E5B69
3E35F9CD
3DBB174F
3C656046
3E3A52FF
3E034BD4
3E07FC1F
BCA194CC
3D1EF49D
3D9F06E1
BDCB1EA2
3DF96476
BE4768E0
3CEFFEA2
3E0F0AD8
BDC90AC1
3D9B4803
BDFFF6A2
3E0BA651
BE5207E0
BD5B54D1
3E279655
BCA53056
3D4D2DCC
3D1DC2C7
3E1DDE2C
BDD0C1F0
BDC20B2D
BD0263FC
3DDAB957
3E3E210D
3C2F3495
BD80BEF3
BCE01DB6
3C81B8EB
BD3877D0
3E2068F5
3A5B3DC
3E33BB4A
BD20EAD6
BD83454A
3E0B4B4E
BCD3573A
3E0B95B4
BE50E408
BE199AC9
3C8A3C14
3DCD397D
3C8D9C4D
3DD2DCE2
BC80EC73
BE1CC39D
BC34A3B2
BE0070D5
3E318588
BE1EA82D
BDD92CD3
BDFABACE
3C1B2E53
BD250297
BD04FA32
BE0B7141
BD1BD1C1
BE23D540
3E0E99D2
3C6600B1
BE0984C3
3E1D588A
BE1FACED
BD0041DB
3DA2C321
BD1C03DB
BDDA1333
3C83D552
BDB4BCAF
3E1B8C05
BD5B5DCB
BDC6F0B1
BE258F39
BDB4927B
BDB83F8A
BE48BECD
BD33E7CD
BDCB23ED
3DB283F3
BE06736F
BD2CAC1F
3DB7769D
3E149EBB
3D29FE08
BD1E07E3
BC918E34
5DC96654
3E07B427
BE192FE0
BDC2B657
BD86F0C2
3D11F325
BD10020B
3D5A94CA
3D60BB37
3DC24FF8
3E235E61
BE3756AB
3E0FE218
BDBEBF4C
BD0232D0
BD21AEDE
3D96308A
3DBCB4C0
BE1AFC85
BE26F918
BD9AF961
BDE1ED4C
3DA78F70
BE3E7471
3D714362
BE04CAAD
BE091E74
3DBCE7B2
BC94C162
BC43B442
BE4B3B04
BE0CB665
3E0AD2F2
3CBB1686
3E254B5F
BE128347
3E3FD39E
3C36B6F1
3CC493AF
BE305CC2
3E404E12
BD9CCD70
BDC29874
BD504459
3DA4E66B
3D915EEA
3D5C2A0A
3E1534B9
BC19AEA6
3E0417C2
BDE7E78E
3E018EEB
BDBA54C1
3E0FE363
BCA24721
3D316955
BE4348A7
3E28C9BD
3E09F67C
BD2C433D
BD172D9E
3D17BC96
3E407AC5
3DF461E0
3DE98E3B
3E3F8CB1
BE2D8395
BDFED597
3E059D9D
3D2A85B6
1DD4E5F5
BDEAD6D0
BD08D01E
3E147BA9
3DF026ED
1DC30E78
3E19A24E
BDA279E0
BE0CB432
3DC89393
BD514926
BE051F1A
3C0D70C9
3D826221
3D66A6A2
BCDAFCCA
BCF06232
BE101294
3E412F01
BDCE01B7
3E4059D4
BD03636D
3E34638B
BE2B4D8B
BE4D6120
3DD8F243
BE3C20CE
3D0FAD7C
0EC54513
BC9A3626
BDC588EF
BCC62478
3C997691
BE139E3C
3D2A0C63
BE2AFE8C
BD00FFF1
BD218867
3D430478
BE1A02ED
3DC60EF9
5DF9D6C0
3E415291
BDFE90B8
BDAAD1FF
2ED546CA
BD54D4E5
BDB7D3FC
BD8654A1
3C965FDA
BD60FF89
3DF01297
3E19853F
BD78CF56
3D9E1151
BD9CC344
BD189C55
3D81AD17
BD9F6AD9
3C8A0583
3D85A4BE
BE47623B
BD080123
3D4AC8C6
BD4D1CC7
3D50C6E3
1DDF2995
BE30C865
3DFC921B
3E32DAA3
3D5D4C83
BCA5E695
3DC227ED
3E1C9A77
3DB3B4E3
BD82F436
3DEE0F34
BE32CB61
3E29BA58
3D92ADA8
BE45CCB2
BD85781D
3DEF228C
BDBD3BA5
BCF24C17
BC9ED270
3E065AB8
3D1C32A5
3CA1A549
BDE40335
3E2DE6DB
BDB943F4
BD7AF608
BDBF6FA3
3DDE220A
BD9807CC
BDB006ED
3DFDF292
BD65E69A
3D452427
BDD2FC75
3D9E22FF
3D014E3A
3CB69931
BC5CCDF3
BDADF3A8
3DFBED40
3D27D77B
BD7C9808
BDCE98DC
3D3C605A
0EC3E947
BD6C18FD
BD5A2496
3E4004D7
BE0A2056
3D6203C5
3DB49212
3E094F96
BDED0895
BDCD20B2
BDC96AA9
3C021D84
3DD1100B
BD0BDA19
BE0BEC69
BC72CED5
3DC7718A
BC8F0389
3E2904F6
3DD548B2
3DD5DC00
BE1527FF
BD8B5867
07558772
3DBA32E3
BDA9435C
BDBD298F
BC213108
BE18AD2C
BDDBD0CA
3E3487B3
BE02AB43
3D2CEFE8
3D29FBDB
3DCEB11B
BE02906D
3E1782F3
3DF0B7B6
3DD4F026
3E0CE43B
3E063A12
3E32A87C
BD9F5BD9
3E1E8253
BE1C57F3
3D4FE803
BDA1B736
BDB08B1F
3D26DEB0
3D35261B
3E1184DC
3DE4C97A
075B3E91
BD20F461
3D6B06D7
3DE0E3E8
3E3D645E
1DCC76DA
BD703818
3E015E2D
BDE0B169
BD81B6FF
BD9862CB
BDDCC278
BD252114
3DCF3DE8
3DDC7F6F
BCC4979E
BE294376
3CE92981
BD68F018
BE203A44
BE148FE2
3C9EF188
1DE560AB
BE1AF0DA
BD5E36B3
BDF687AC
3D1DC82A
BCFBF77C
3C8233BD
0EC23A24
3DBFC4AD
BD0452BE
BD34BD7F
BE176C47
BE11CBC0
BDC6666D
3D8BCCEA
3E026600
BD962D3F
3D4918DD
3C79E899
3D0254A0
BDB123AD
BE1600D3
3E0A00BA
3D55F289
3DC6B994
3E07F95A
BD7AA1DE
2EC5CB77
BDAB4A7A
3DFCD062
3E1A8364
BE011704
BDB2B601
BD5A100B
BD87A1C0
3E328489
3CF3DEBE
3DACFDCA
3D9A8B85
BD5551DD
BD5DF926
BCD35712
1DF539B8
BE14C39D
BE234772
BDD76FD0
3D238694
BDA3DBD6
BE192695
BDB45A4E
3DC4A0B7
BD733847
BCA2F6D8
BE31F5A2
BD93C9C2
3DFCFF2F
BA5A0F1
BD885E9F
3E16C56A
3D739EF5
3DE517C5
3CDEBF8E
BDDAC93D
3D96B1AD
BDE7E873
3CC2BAB3
BE3AA133
BE2F0F78
BDD981A0
3E07C7A2
BE2D2854
BC9734FD
3E343C22
3DBF9D66
3E050684
3DEB1B92
0EDF2589
3DEA8383
3DA1B43B
3DADD40E
BD8710A7
BD248528
3DFB5BF5
3D89A9C8
5DFB264F
3E02E062
3CFAF24B
3D01D228
3DEF49D2
3DD50C4B
BD2105E8
3D29CBCE
3DC08B39
BE0F4DBD
BD99A9CB
3C25173D
3C74E2E1
3E0E4446
BCFE1C6D
BC99D0D5
BDECDDBA
BC0FAB41
BE05B0B6
BDF592BB
3DFAFCD4
BE321EF3
0ED36288
BDC5A649
BD021805
BE38BAB4
BD5158CC
BDDE9116
BD427A12
BD984317
BE14E8FD
3DB2E7D1
3DEDC1EB
BD52AEE0
2EC73CA1
3D9DECAD
3E20C06E
3D6EBF98
BE334619
BE178A20
BCB094E2
3E15E52E
3CEE856F
3E25BDE0
BDB750FE
3E0C5381
BE09B7A2
BE215A0C
3E24F863
BE15AA24
BE0F9F6F
3E2B9D6D
BDEB7256
3D995A1A
BD99FD30
3E32B1B5
BDB0EDAF
3D012BA3
BE29895E
BC35927E
BD8B147D
3E02DF64
3D2953D9
BDE175E0
3DBC7916
BD1D00CB
3E07F305
BE12080C
3C9DF7D1
BDF0B779
BD8848E2
3E25647A
BDF5BBB5
3D016568
3DD66E36
BD377819
3E1EAF69
3E2FCE84
3C062890
3E1ED676
BE012D09
3DF041C7
3D54D9EF
3DD83101
3DCC2C07
BE0CBB94
BD3025D6
3D968B37
BDE2B788
3D036DB6
BD20F0B3
3D940D89
BDD8AC3A
3D2C5FBD
3E03DE52
BE08E189
BDC1DFCA
BE1C7A0F
3E0E1A02
BE3206B9
3CDF45E8
BE13BA80
3DA07A53
3D5F644B
3CB7699D
BE0F3011
3D1638EA
3E340945
3D96C31B
3E4F3ACF
3E0B352F
BDC94120
3CF31FDF
BCC54AE4
3D85573E
3D1D448E
3D3C7EB4
3DA1FBD6
3D8B5D2D
BDEEDFF7
3C72841A
3CD27112
3DC7937E
3CC189F5
BDF5A02D
BE1701F5
3D3AD8A7
3D99FEA0
3D7FE3B4
3C7F7385
BDBB9EBC
BE079A9F
BE3A3716
BDBCD512
BD762566
BDD57B09
BDB349A6
3D0624F0
BDF28A5D
3E4437C8
3E0A49FC
3E283430
BE38CC95
17581885
3E016D1A
BD06F0F4
BDACB036
BC3E99F4
BE167935
3CD25455
BDF69CA8
BE27A865
3D6817B5
BD36C000
3DCEC660
3DBB9584
3D4E2F58
BD918626
BDE5E1C8
BD92E922
3D5E5232
3CE25120
BE1FF4C0
BD5CE009
3E06E19C
BE2A2CAB
3E1C9C92
3DAEB039
3DB5B1D1
BE1AB26A
BE025EAF
BE0B752F
BC27D584
BDE472C9
3DBA1FAE
3DD82412
BE3A3176
BDFB542A
BE385364
3E19E0E4
3E0A2858
3E026BED
3D9AD484
3E101FA3
3D747066
BD3C5C1F
BDA3D1B4
BD819250
3CC3A14B
BDC423EC
BDBE6726
BE0E03FD
BE288205
3DFFA5EC
BDDFA96B
3E0E8EC9
BE2423B4
3DC37470
BDF01571
BE0A0E1C
BCF3912F
3DACC2BA
BE06AD12
3E0430D0
3E346ADC
BD8A5DA4
3D270891
BD6C6998
3DA227B8
BE3DFBDF
BDAF57DD
BDD32C7D
BCA0FFDE
3E1851C6
3CC2D7E1
BDF6EBD3
3DA18BB2
BDB6CD4B
3DACEB41
3D3F9B05
3DE62538
3CDC18DB
3D507F5E
BDC6B0B6
3E11E61E
BDAD7261
3D855D60
BDFD1387
3D8BE76F
BD0CA374
3DFE1B9D
BD0CDFB7
3E10F84E
3D73AB2F
BDD42968
3CEDD186
3DF15040
3DBE7EE2
BDD39671
3E21445F
BC9515D9
BE5FC165
BDCB53DC
3E4EB11D
BD018AE3
3E0C0B52
5DD68871
3DC2F3E9
3D4C6B6F
BD3FC40A
BD80A193
3CAAA369
3E0C7C2A
BE1E3B69
BD825F4E
BE49D273
1DCE6619
BE3E1128
BE0C91EE
3D946B2E
BE1423F5
3E0729F6
3E143480
3D8C41B5
BE04134C
3D92EFB1
BE1487B3
BDAA0C8A
3DDAE155
3CA7C6C1
BDA605F6
BD05EBE7
BE280A66
BD91EF49
BDBA513A
BC73A88F
BD40D6EC
3D0D815F
3C5FF66B
3DE4273C
3DE608ED
BD069B49
BE1DBCB7
BE3C0BF8
BE13974A
3C021224
3E05FFAA
BCC62B0F
3E32B7C4
BE08C07C
5DC6E023
3D1516F9
BE2D9558
BC4E9621
BD0E4725
3DB40112
2EC16AD7
BDC45EA7
BE060162
1DD76685
BE198CA7
BC22B8DC
3E2BFCEF
3DC136B0
BE0ABD5F
BE20B8B0
BDA3B418
BE2D47FE
1DEE36D9
BDE941BE
BE15F818
3C4943F5
BD13F2CB
3DCA8DFC
BE2FBB61
3E30B3BC
BCD2A8C8
3DD420C9
BDFF9F38
3D520EC0
BD674DBE
3D197CB7
BD2E0BEA
BC9E3EF4
3D55D5F0
BE38C31B
BD9D2144
BD747F1F
3D290FB7
3E475D72
BDF5B3D6
BD9DCAAE
BD897704
3DA5613C
3DA7DF49
BE1E6EC7
BD488E3E
3DE6436C
BD1608B1
BDD9AD9C
3E244F8C
3CFA5577
BDD0FE91
3E13F7AE
3CD895CB
3E435E1F
BD011CFF
BE1C23C9
BDED302C
3DFD9277
BDF89099
3E3328CA
BD356277
BE0B5BEB
3E250B52
3D7E3D37
3DABFA14
BD23E929
3D7D1C5F
BE0CD4FB
BE297BDF
3D7FB66C
BE1D5048
3D4A9C5A
BD69918F
BE463FEC
3D9C7E06
BD90690B
3DA220E1
3E2006D8
3D41CCA9
BDA0B6E3
3E424324
3C8C8958
BD76C87B
BDCC85EA
BD6BFA12
3CFC1DDD
BD7EA95E
3D9D9955
BC995B31
3D036BD9
BE28A43F
BE229BBD
BE072E93
BDB7BE27
3D9D2C59
3DA07120
BDBDE747
3CE9F55C
BD7963D0
3E0DBE1D
BD6FA7EC
BDC9B2F8
3D0205C8
BD286668
BD372BDF
3D5C7655
BD5BAEC8
BE169B2D
BDC09D6D
5DFA5D89
3E47E239
BE260A54
3DF6E72D
BD0BEF74
BD84D676
BCF6B375
3D1B4EE0
BE0A4E44
3DFEF63A
3D81BE6B
3E4B70FB
3C7B3477
3D983A76
3C621E54
BDD512B7
3D158BAA
BD482EA4
3D302BA7
BE2EF288
BC43394F
BD2E59BF
3E0C192F
BC4BB4EF
3E225181
5DC04A23
BE0915CA
BDD33C83
3CC38C44
BE14B4A2
BE1A6F5D
BD436137
BD2848FB
3E292ECB
BD7A9099
3D1B72FD
3E0BCE39
BDDF9D33
3D74F512
3E3F43DD
3DDDD096
3DBD6402
BE0682BF
BCBE399B
3D73A228
3E01D95E
3D1EFA61
BE2A6124
3CB44E6A
3D8F1719
3D268C10
BC80B49E
BC9A20C5
3C6BB872
3C6749BA
BD8355C9
BDEC2043
BE03D58F
3E4949A3
BDD288C0
3D02AB36
BD99F905
3D61B685
BC08FAA1
BE14EB93
3CC13D9A
3D18AD5B
3E13517A
3DABE5AC
3D4E5636
BC8AFCC0
3CBDD358
3CB01FC8
3E537478
3DF894E0
3E4CFCF3
3D75EFF3
BE105FB7
BD090825
BDA2E878
3D149D25
3E2864B8
3D9FF667
3E34CD3A
BE017641
BE12C5CC
3C319424
3C83DF08
BCCCC07B
BDBCF256
3C028777
BE218CA3
3CF53138
BDD1A81A
3E061D5B
3C708477
1DC38D0F
BE0F6B6E
3DFD9323
3D306F01
3D1E980E
3E3ADF5A
BE26F1E2
BD3F4F86
BE24EF54
BD90A3A9
3E2358C9
3D9FE8D2
3D470DE5
BD86D341
BE220F46
3C9FC769
BD75FA5E
3D34C23E
BD3A55A4
3DF67985
BC9042E3
BE393543
3DA3BF9C
BDDEC07C
3E0EFC77
3D5C2099
1DC199D1
3E16A2D3
BDBA5AF8
BC6EF55D
1DD1457B
5DCB59B8
3E087F25
3D5C235F
3D831E0D
3C8735C8
3E073005
175CED6A
BD8A0AFD
3D28AAFE
BDA20A40
3D912A5D
3D115F3F
BCEE1850
BD9B5927
3E1EB5BE
BD73AD13
3D700946
BD99BFD6
3E270655
BE1EA65B
3DB3ED30
BD942FFB
3DA625AB
3E190441
3DDB70A4
BDA2F95B
BE2A1125
BD7FF2A9
3D7901E3
3DA5B316
BA1925D
BD231953
3E0738CC
3E06C64E
BDE5FE12
3E1C5E43
3D87970B
3DDD62DB
BD023380
BD843B09
BDB283AD
BD31D00C
3C499B46
3DDC8F36
BE023D22
BD3FC65B
3D2E3D40
BDE994B7
BE24A43D
BE15658D
3DC26C0A
BE278A55
3C1D1FD5
BDE96F69
3E1C75C8
3DEC6316
3DFBC479
3E3710D2
BE319ECA
BDE881E1
3E218EA3
BE35816F
BE1B8CF7
3D20FD44
1DFC1AF6
3D178ED3
3E19A612
3D8D06B6
3DC2A789
3DB6594B
BCBF03D2
BE17EA15
BDC53E02
BDB42335
BE264644
BE301330
3E361B41
3D9B998D
BE332E74
BE061F1E
3D004D78
BD8436B3
3E25045A
3D049F19
BDEB4A9B
071A59E
3DDD114C
BD230ADE
3CFAB434
3E2FD86F
3D5F5663
3CC3D62C
3E1CE8C2
BE14DB1A
3D1BC936
BDA43D95
BE3A387E
3DA9BBF9
BCB4E8D1
3DC0F7DE
BE0B996A
BC62A952
BE1A2CF0
BC2AC0F9
BE2D883E
3CFB0E27
BD8CB86A
BE2104CA
3E0F3E8F
BD2C6710
BD43825C
BE2EB8A6
BDD60A86
BD0DE83C
BE0600DB
BD8CBBF8
BDA92026
3E0B64B9
3DCBF9E4
3E187C61
BC188C55
3E245100
BE152EFB
3DED345A
3E12CBDD
3DEBDFD1
BD588581
3DD3D681
3E0AAC88
BC8218BF
BDCB23BD
BE2B66F7
3D942A07
5DD05E03
3DE93D80
3D8E3577
BE35E56E
BD760CA7
BE2BB55D
BD673CD2
3DC3FB3A
3CD3FE1B
3D32C048
BDC96DF4
BDF3C376
3E40A8D2
BD3D1A98
BD9EE3D5
3D80F587
BDD36B52
3DE7659D
3CD36E32
BDAA11C7
BC78B232
3D869E46
3E34D765
BDD67915
BD246E22
3D401E69
BD826EA3
3D8DEDFF
BE1C415F
BC53C0A8
1DEF855C
BE0F1AF2
BD85EA12
3DC99514
3E33E1D0
2EC3582B
3E2E6ED6
5DF84419
BDA64EC5
3DD66360
BDA9244D
3E205795
BD5E37C3
BE314EDE
3E1491CE
BE20DA5B
3D6E4E47
3E61D01F
BE287F15
BE1DF7E4
3D9FA7A4
BD7FC18C
3A01A79
BD2FCEF7
3DABFD64
3E2282D4
3D86DFA7
07543E36
BDA88589
071E7FE
1DC7B34C
0ECF79C6
3D78D947
3E0ED2C9
3D4FD5D8
BD016F57
3CEC16C8
3D9084E2
BCD4A83B
3E0402E3
3E04DACE
BD682EE7
BE573CA8
BDD6C8D5
3E423EF9
BDA8C1F6
3D06AD40
BD342273
BDB2BE55
3E1B1835
BC40A2D7
3D22DDD9
BC655632
BD305149
3CACCD0F
BD73DCF8
BD1C72D8
3E253023
BE252035
3DE107F4
BE329875
BDB2B9ED
BE5CC345
BDA0FA8A
3DDEE397
3D1F6217
3DE4E083
BC58F591
BD8F576E
3C3E6E50
3E176854
BCE2EBC5
BDAA1ABA
BDD32BAD
3DA42D4E
BE41383B
BDD866EF
3D27F68F
BC9BD2D1
BCC2C80B
BDA5CF51
3E367BA5
BDA6BFD5
3D6835BE
3D28E343
BDF27FF0
3DBDA9F2
3E19F6FD
BE0698C3
BDB25304
BC5924E7
BD3B26DD
BDA3483D
3D85EFA5
3E0E69CC
3D846848
BE3364F8
3E220C23
BD87EE6E
BE269EFC
3D04F021
BDF78367
3DE4BE71
BD659A55
BDFDC0E2
BCF34ED6
BC483585
BD8D0EAF
BD481584
BE39653A
BD855099
3D0D021F
BE167B5E
BE0DB35F
BE00DB6F
BDBAD3DC
BD11A9F7
BE29F37E
3E10D5AA
BDCD9C37
BD307B14
BD5A9D8D
BA1CC9F
BDFAFEB8
3E092A73
3C66A872
BD55803E
BCA28FBF
BDA9EA2A
3E17C7E7
3E38874B
BD844B69
3DE1AEA4
3D9FBB7A
3D9DD835
3C35E0A6
BE03A5AE
BD8F8BFC
BCE30EAF
BD3296BA
BDC6E56D
BDE34C45
3D616D31
BDD45A2B
3E1F1C05
BD9087DC
BDC45988
3E250CCE
BDD3BA29
BE0D4D1C
BDAC0171
BDED7A25
BDB8DAF2
BD94C561
BE1A919C
BDBC4A0A
3E2F2BED
BDE978EB
3DF120EA
3E0A370B
3E277A79
3D9425CD
BE2B16FC
3D8C2A20
3D175923
BE1A7C6E
BD54D5DB
BDE7C75C
BDAB2DFC
07545CCE
3D937BEF
BDAFB3A2
0EC57C66
BD891398
BE1F8AAA
BD7F50FB
BDEC1004
5DF11ED6
BDDA6CE3
BD4B0881
BCB60AA1
BE30AA6C
3DE3B840
3C1865BB
BE268876
3E140B70
3E1F97C6
BDDCAF8A
3DDA1D7E
3D221A97
BDAF46F1
BDCA8B49
3E2DC4C7
3D298D99
3E1C46C5
3DB1E859
3DBD8B36
BE12A21E
3DF6A873
3E136A8A
3CF9FC00
3E316E76
BE17A02E
BCD16624
BE22CC16
BE1FEA0A
3E0876B7
BD538FA7
BDA00709
BDB69060
BD924558
3D56AD03
BD8A1A96
3E066B0C
BE3A0D66
3CED8950
5DED8C88
BC889B46
3E29F600
3DA2D964
BDBB8BD8
BDCE1B36
3DC2E699
BE176124
3D15E986
BD0C2586
3D896B27
BE1F5D1D
BDBE4B70
3E17D0F2
3DAE7575
BE38A300
5DE27739
BCBE15A8
BC04A32A
BE152ED4
BD42218F
BDB9D316
BD51D1E9
3E0EC253
3DD5FA8D
3C64FAE1
BDE05AC4
BC438AFE
BD90D121
BCFF0A28
5CFCC94
BD79FC66
BE18E0E9
3E08490E
3D4A1791
BE1C1D90
3CDA01A5
BDAB81C3
BD92478B
BE13C640
BE167304
BE28F31C
BDE1BC73
BE0D6C53
3E21989E
3D7A9E82
BCFB0A96
3E141F29
3DCFBF2D
BDCB0A88
BDFAFF21
BE3C6664
3E02FA46
BC402B94
3E04FF48
BDF0AEF2
3DC94F23
BE120F40
BC557654
3DE7345D
3CF8969F
1DC1686A
BE2DB6F9
BE3B15BA
BD1B011B
1DCDEFBF
BE3997C3
3E24F743
BCFB3351
BD0BFD5D
BD3EA353
BC194D1C
3D84C99B
3DD8ED0D
3C578F94
3E175766
BE378A73
3E30D112
3E298B39
3D93AD00
BD9D6D94
3E018B43
3D828AEF
3D888ACE
BDF0C054
BC82935D
3DAB443F
BE4A37A4
3DD4ED04
3E0A6762
BDC2386C
BD9AC1E8
3DE2EE72
BD9A510E
BDBE0CF7
BE25B865
3D061D3F
BDD98358
BD90F89A
3D4BAF8A
3D81414A
BD94EFAE
BE39959A
BDFF83F5
3D9108AC
3CDA6CBC
3D9033BB
3D1CD0B6
3E478524
BE41D5C5
3E07B15C
BD3B817F
BE11A6FF
3CCBDCB4
BE421705
BD8CC7B9
BDF6D62E
3CED18E5
3CE69AAC
BD6EC741
3D8E3DA5
BD9D48AF
3E2076C5
BDBB0839
3C0FB115
3DC6A34A
BD925D50
BE37D9EA
BE230308
3D66DAD2
3C8907ED
3CB21258
3CCA5C49
3CE51CDD
5DE28FBF
3DBC60A9
BE046D0D
3DED1008
3E378A16
3C2BFA2D
BC79231F
BD437D7C
3CA07176
3E31405B
BE08FB2B
BD34823B
BE112173
3E08446C
BD8C8396
BD1D4152
3DC06A4D
BE0E5B94
3DF16FE9
3DB2E649
BE1C452A
3DA11101
3E4F7592
BE592AB2
BD241532
3E1592DA
BE44D3DE
BE036D7B
3DB9B7B6
BE006976
3DCA2B91
BE3ED179
3E28B487
3E0A987A
1DE51CF2
3DF0B068
BD1B7CBB
BE2E084B
BCD8F488
3E2512D5
3E3A338D
BCE733AA
3DE368CB
3E20A4EC
BD188C05
3E05DE0C
BE05A330
3E326335
BD753949
3DABF77A
3DFBCDD0
BE69A828
3CD3C136
BDCB3B88
BD2EF434
3DC53E1A
BC80152D
3DF8F342
BD192BCC
BC04D14C
BE21AF3D
3DF3E0C9
3DF04819
3DFEAFD2
BE09B04B
3DBC22A2
3D311C20
3CA350C6
3CC76697
0ED1AFE6
3DFD8837
BD21030B
BDC20CB6
BD921A46
BDAAEE63
3E1DFCD0
BDA28926
BE33F1F9
BD824E92
3E2906F3
3E4CC39A
BD9ECF87
3E3D7EC2
3DE7BD91
3E42FD5F
BDEEEC64
1DDA9522
BDF80D53
3DD4FCC6
3D3220D2
BDE2BB5E
3D8BC669
BD96FE42
BD2E956A
BDBCFBAD
3D9F22D1
3DB13A37
BD7592FA
BDE579A9
BE30467F
3DD5BFAA
3E0AF34A
3D3F983D
3E57D807
3D6110B0
BDD97CE2
BD9A3304
BD5D1629
3DC27586
3DBA139F
3D9B11AD
3DAFE715
3C3BFEF0
3D51A1A3
BDAD8058
3DC9FB95
BDB8FF41
3DCA792F
BE054149
3C15E6A3
BDE1D2B2
BD806528
3C441B82
BD3DC9F9
BCC27589
3E0CDD39
3D6F7835
BC290055
3DD8C3FB
BE44774B
BDCCCB20
BE2402ED
BDA90423
BE266C66
3D124616
BE0A6404
BDAB5C64
3C66994A
3DE945D9
BD0EB3C3
3D72B8E4
3E070C9D
3E46EBD0
BD875A78
3E380964
BE269E6D
3D8E91E2
BD14CB02
BDEB3BEF
BE104174
3E359AED
3DE245CE
3D6C20D0
BDC477B1
BDDA492D
BD2D5EDA
BD30A2CA
3E04CDED
3E038415
3DD88F6D
BD1B0B73
3DAA120D
3E230ADD
3D0253CB
3E2DD74B
3DD0A5F4
BDEEBC31
BDE3B5C1
BE039797
BCF2357C
BE02914D
3DCFA0CD
3C573945
3C877275
3C8A5C11
175EF18A
3D9FF50D
3DE095C2
BD7443AF
3D859D4E
3E203CDB
BD9A5243
BDC8303A
3D6A1ADE
BE2815E6
BE0BC027
3CD1C6A8
3DE0E765
3A65B4D
3DE926AA
3E057F64
BD71E258
3D07FE0A
BE2A4AB6
BD6B34B1
3E21473E
BA56527
3E086027
BE3FE645
3E192DE2
3D801145
3DD69AE3
BC3A0441
3D5B6B3D
1DCA9098
BE02ABDC
3D7AB31D
3C4FC3D7
3DFF72CA
5DD7C3D4
BCF78197
3C8DA9CE
BD552DC4
BE097364
3E11CD7F
BD98D280
BDFB8ED1
3CDA0236
3D898B3A
3DDB226A
3E0D198B
5DCDB714
BDC1D15B
3A3EDF3
BD0334F4
BE3A7DD4
BDA150CB
BDCB7E06
3C3CA87A
BDDA6BC0
BD5B5780
3C259BD4
BE252BEE
BDDC23C3
3D23841E
2ED62C10
BD89DA4B
BD91A172
BDFFA4E1
BC37F97A
3E22AF16
BD9A10BC
3E2EA308
3E318E30
3DF64046
3D24B686
3E26F57B
3D37BCDC
BD19DDBA
3D2910BC
3D228F21
3DC14157
3CE5A42F
3DBFD097
3E18E983
BC59BDD0
3DE1D97D
BC1D789B
BDEC48E4
BDD0FF2F
BD350F5D
3D124C99
BD679D34
3D95893E
BDDC06F6
3D01C19F
3DEE7754
BE1349BD
BD0580F9
3D4C7118
3DB4F7C5
3DEDF85B
3D70877F
BE05C913
3C6311D1
3D1357A1
3D906620
3DC705AF
BD17473A
BDB4650B
BE347CF1
BD79F7D1
3E369E56
3DA00590
3D8746D6
BDDC8E2A
3DAAEB36
3DA5AF69
3DF87BC6
BE22375B
BD22CF0C
3E02675E
3DB12EDD
3DC1DFD2
3D05FD31
3C815E84
3D344DB3
BDEF4043
3E0AB2C4
BD195595
BD972602
BDB49B9C
3DDD03AB
5DC05053
3DE3D3E7
5DFCCAC8
BDF511E3
2EC2CF62
3DF0680A
3E204D0E
3D35ABA9
3D3F9E34
BE20E267
3CD08F1A
0EDE3B82
3D910B63
3D5FED1A
3CE256A9
3D700625
BD08755A
BDFD8644
3D12320F
3DD35F26
BE1BFF4F
3D3A342B
BDB029E9
3DA52F10
BD9C5069
BD575112
BDC08A9B
3E09E53F
3E374702
BE11D777
3D997D01
BDD93C84
BE38A948
BE2F2849
3C408133
3D3637AA
3CBEF513
3DD8D62C
BE0247E9
3E16EFC8
1DD0EBB1
3E1510ED
BE2DB59D
3CFA98B3
BD335B7E
BCCA827F
BC9DBBC6
BE1FB798
BDDA87DA
BD68F6CE
3CDAFD1B
3D30EB56
BD5E9F78
3C672FCA
BE0FE49D
0EDD115F
3C385921
3DBC8ABB
3DCF9DC4
3E1F414D
3DFB0148
BD962755
BD15B642
BDE43D97
BCC1210D
3DEF4A7B
BCE2D2A4
BD99E095
BDBA3727
BD414B00
BDFE7B77
3D3A6D4B
3E27C896
BE0278DF
BE297495
BD7987B1
BD173D22
BD8D05E2
3E36EBA5
3CEB1C6F
3DDE55E9
BD85F863
3DADE2E7
0EC78FBD
BE3115FF
BD5A29C7
BD93C91D
1DCD4E22
3D52A1F2
BE101F78
BE23FB1E
BDEB539D
BC63EDCF
BD84553F
3E364A4B
3DF3B704
BC0C5879
3DD8AFB4
BD1B4DA4
0EDDAB2A
3D5009DE
3E32E728
3E24BB4B
BD30512A
BE05981F
3DA0C774
3D3D77C5
3DE8AE3B
BE2EB828
BE2145A2
3DDD5446
BE2B52B7
0EC2D136
BDAB8ECE
BDFCE3F1
BE2F33F4
3DCCA979
0ED169F7
BD664CDD
3CE137C2
3D8303A9
3D167122
3CC12037
BDC8B112
BD67EE37
3E0A70AA
3D2E96C6
BDB99CFA
3E0B2D3D
3DAEE133
3D5461E9
3E06F4B5
BE2AD403
3DDB9D96
BD9B6787
3D45C4C1
BE464931
BDA8E44E
3C99D5E8
BD8BB40E
3E0E0820
BC512708
BCF0ACF3
BE043B51
BDDCD48E
BDF0DDB2
BDFADDD1
BD83D552
BE064575
3E475B0A
3D2D31A3
3DC725E6
BE2F4962
3E2A635E
3D868673
3D939C03
3E0FCC00
3C591682
3D0AC547
3DF0F59F
3DC229D6
3E03F7DE
BC69EF4F
BE03A450
BDCFF691
3DAC4D4C
3DE7DB2A
3E24E62E
BD51062C
BDCE5CF9
BE3DEDEF
3E09928F
0755336C
3E1EBDD1
BD967DC0
3D6EAB03
3DB91AC0
3D8DC5A1
3E0A34BB
BDEA8FB7
3DD80441
BDB56BFE
3DA7F3A8
BDBC13F6
3E03F822
3DCBC754
BDB83985
3CB983BC
3DEF592A
2EC69B8B
BE07412C
BE50C6D8
BDF599F1
3DA91EF7
3D4741B3
3D5904DC
3DC3E731
BD21809D
BD5D993D
3E0B0B2C
3D1DE851
BD85CB9D
3E0CAFE2
3C9B262B
3D272219
3E06B1A0
3D7AFF8B
BE31EB3E
BDDA0FFB
BE016496
3E18286E
BE0B567A
BE2172C7
BDE98946
3DDDC2E6
3E073C92
3D90D406
BD2630A0
3CD4EBE9
BCBA7D92
3DA54D9C
BE11F918
BDDCF139
3DD5C54D
BE2BBCB7
3E0494CD
BDAF2332
3DAFDF9C
BD3F77EF
3DFEB0A1
BD4C16AC
3D49CDAC
3C5DEF97
BDB56508
2EDC5E38
BDE7B3FA
BDD555A4
BE08D62B
3DE7648A
BDF9C414
BDFB6A16
3CA5D98E
BA6FA30
BD1653B6
BDBB9D11
BE125AC6
BCECA91F
3D407985
3CDB52C1
3D83933D
3D2804D7
BD9CA81F
BD76CE0F
3E38E857
BD78EEE0
3E23CD2A
3E05E0BF
3DCE1EAF
BC2348A7
3D203E18
3E28546D
3D332085
BDB66A03
BD23E8C2
3C5B168D
BDD8A63A
BE0E1DEB
BD83E8F6
3DDDF935
BDCEB437
3D7CC21F
BE2409B9
3CD7B41C
BDE0F9C1
3CD0916A
BC863CAC
BC0934F8
3DEDC0D1
BDC36213
BD7A418A
3CA0FFCE
BD28CBD7
3DC713DB
3DE770AD
3E28934C
3D97B962
BD6AD1BB
3DA078CC
BCFAB024
BC0F5220
BDB41991
BD885421
BD6A595D
3D42B554
3E331409
BC5FB211
3E003319
3D8E9E11
3C7956FF
BD989073
3E3CBF3D
3DB2F66D
BE10BF13
BDBAD5A2
3D52731C
BC36AB0E
3C6B2BC0
BE2BFF4A
BD557625
3DAB0F07
BDB283B5
BE2647A0
3D477808
3DF037C4
3DE2E2F9
3D4AE278
BD54ADC7
BDAF8245
3D0484FB
3DEB983E
3E101E96
BE060A94
BE09FF82
3E232EB5
BE0BB8FD
3E11A2B9
BCEC36C3
3D018510
3DDBBD6A
3DD3371C
BE1FB56A
3E01EC13
BDBFEA1A
3E075BA0
BD1F20F3
3DBD1F8E
3C1B77C7
3DBDACAA
3DE156C4
3E14C4B6
BDC11503
BD67CF5B
3E2B540A
3E07E450
3E21BE71
3E291970
BDE1E36A
3E1F5AE4
3DD81020
3E16F966
BE239EF1
3D5CDF2C
3E5E91E3
BE0A5AA9
BE1A667E
3DA6A2F5
BD9D55FA
3DC40C92
BDEA27D3
BE6C69E6
3E1A1CE7
BDD58DEE
BDCF3EF8
3C24DCC0
BD016D0B
3DECF484
BDB3ECFA
BE206BC6
3E3E62F7
3D35D03E
BD50E49E
BCF557DC
3E309E0C
3DB24F0E
BD58F4DB
3D829128
2EDFF520
BDC29F71
BC55EDD3
BDAAF7C1
BE0D2EA1
BE3F7ED0
3D44BB33
BDD26112
3D9844C9
3D70B38C
3D4F5BDE
BE15C926
0ED70A28
3DE2C699
BDE1C3C9
BD860383
BE23C2A6
0ECA0DB0
1DE7CC12
3E2961ED
3D313D3B
BE0A5190
3D125C85
BD7DDE95
3DE048FD
3D86EB70
BE1B9517
3CB7F770
BE20E95E
3DEB46B3
BDCBD219
3D6577E8
BE2E8550
BE2A4FB8
BCEE8FD4
3E3455A9
BD75810D
BDE8500F
BD9E4F19
BDD2D8A7
BDD8DD2F
1DE0ADFF
3D544472
BD6BF86B
BDFA201E
BC8FAFC0
BCB0B65D
3D4AAAB3
BC796B35
3D939B54
BE2F8EF5
3E048541
BE2B1F92
BDCC9DDD
3DA42A97
3D886291
3E4B21A9
BDC2E4C5
BDA5F478
BDF768BE
3E27B975
3CB6CD9D
3CF22F9C
BE073B04
3E1B2183
3DF8FEB2
BE1FF1BC
BE0004BF
3D90D43A
5CC258C
3D24FCF1
BE00D932
3DC0B43A
3D69B7CE
3DEB191A
BDA133DB
BE196D2D
5DDF7F64
3D02387A
BE04AE40
BE15FDAE
3E19C1A6
BE1F7125
BD99DAE8
BE1F4FF8
BC4C7203
BDB4D847
3D98913C
BE10FE4A
3E1FCB70
BD6414FE
BE010FC3
BE05F15E
BC40EAAC
BC09D178
3E0FB1D9
3D953019
BDC81587
3D8D4655
3DA56D30
BDBE063E
BE221094
3DDBB3B5
BE33130F
BDC02B33
3D94D28E
1751ADD4
2ED0F430
BE0C4A72
3DF22DF5
3E145882
BE0A22ED
3D457982
3E0807E6
3D11284A
3E14E73E
BD5D0991
3E034439
BE0C67C4
BD4ACF84
BE2441D5
BDD785DE
3D9A46DB
3D4218D7
BD82460E
BCC58253
BDF61F1C
BE272418
BDB7F375
BE0AAFD0
3D566082
3CE4851F
3DD0884D
BE2CBBC0
5DEAD234
BDDDACD5
3E31C978
3D95BFB6
3D67D819
BDCC15D1
BE1BB67B
BE1B20F2
3CA97234
BCB69643
3DBF072E
3E1DCAA7
BCCC87D3
3DE20941
3D922984
BE0F41BD
BC388AC8
BE3771C2
1DCB7579
BCEB6D57
BD34CD44
07526E93
3DC6274E
BE2B692B
BE4BE94F
BE1009FF
3E046192
BE0F94DA
BD778DDF
3DE4FB3B
3E3517F2
3E13C541
3E2369AA
3E5E00D4
BE54F38D
BC630CC4
BD124E29
BDF934A1
BE052F65
BE2D1383
075467FF
3D8EF13B
BD3217A0
BC37269D
BE1CAA6D
BE30137C
3E10432A
BE41A2F0
BDBBB79F
3D43C249
BDCDC3E6
BD46FEBF
BE3837BB
3CC0408F
3DC4EF72
BE092DA4
BE11A898
BE23E14A
3CCC4057
3DD420F5
BDAE57D3
3E20B6F7
BCCB90F4
3D41EA34
3E0DF9C9
3E162C1B
BD401AC4
3E388C87
BE407EFB
3E2FAEFB
3D51F8DA
BD9B7DF0
BDE64970
BDC540FF
BDDBB686
3CB212C1
3CEB0641
3D36DB5F
BD6E1C8A
3C387462
BD8BE023
BE3B448B
BC2E634E
3D896FA1
BDFB55B4
BE458360
3D844EE2
BD4F278C
BDFABEF3
3D31893B
3DB1A5A1
3CEC4959
BD31D3E6
3DD7E394
3CE7E025
BCD13232
BDFCDA15
3D7116C8
3DB3965D
3E0D66F3
BCF1BB46
BE21563F
3E036A7F
5DFA6BBC
2EDA7A8B
BE15DA68
BE134809
BCEAA40F
3D2CDA1C
3DFFDE3C
3E14489E
BE2B8851
BE09F0EC
3DD9F4EF
3DDB2891
3E07098E
BC571574
BE18F6EF
3E13269F
5DE7EB24
BCA46F2C
3D4E0B3A
3CBA8270
3DE974F2
3E2AC805
BDB8C657
BE2C953B
3DF3AC78
BC699392
3D190CD1
3E07D9EC
BE2653A2
3DFE2F49
3D81168D
BD9AA055
BD844A27
BDD6F8D6
BE0D213E
BD1B90C3
BDF9CFDB
BDCD88FA
3DC405C3
BC9B5010
3D363068
BD2C971B
3D7FEB17
BE02B232
3C459D71
BE175702
BD9631C9
3E1526B8
BD6D10B2
BDE23A80
BCE994CE
3E40202D
BE077C8D
0ECCC8EA
3C8AD905
BDAB1C33
BCB120DA
BDAB5B10
3E17766A
3D96B4FF
BDF8433C
3DA81503
171E59C
BDE62951
BCCC3342
3C6480B2
1DD82C73
3E17F1F8
07575291
BC46BFE7
BE285211
3DCAADD4
BDD404EC
3E3017DE
3DFEEBEF
BD23CCE3
BDF78E78
3E2CD1F9
BD67FDB6
BDF0265C
3D935644
3D9CAE56
BDE28F6D
BDA7A0CD
BE1E36A0
BDEF683E
3E38D317
3DC8DBD9
BDAA5C4F
BE1FBE38
BD73D7B3
0ED1E71B
BD9F8593
2ECB0BB3
BE42EF91
BDF5020D
3E23B46A
3DE658F3
0ED5A65A
3DDC67C5
3E2D7356
BC2B7480
3D93D4DE
3D03A402
BD6C3B9D
BD5CC66E
3DB3D75B
BDAD5B3F
BE305015
3E2E067A
BD2D5E7B
BD95D3BC
3D6ACC68
3D3EBCA7
BDD03D91
1756F4FA
BD992A06
3E233928
3DC824C7
BD4AC01F
BDA6B5F8
3DA19044
3D50FE78
BD6BA699
3DA7CD5F
BE223F89
BDC83A09
BE36A03C
BDD72DC0
3D927546
3E3B53A3
BDF5C3A4
BE0D678C
BDEB85A8
3DCFEFCA
3E0D3DAB
3D7FBCD5
3A01069
BE27EA07
BE4EA517
3D8A10F1
BDBC01BD
BDA405DD
075A46A1
BE15EE4D
BE103CDE
BDF00176
BE024EDF
1751F217
3DDFA02A
BE1BFAD7
3C006183
BD8529EF
BDF3EA49
3D4D0D27
BDD8132C
3D85CC2B
BE2F94A9
BD95350A
BC4798E6
BD614659
3D54F04A
3C6B6F06
3DFFDBCE
3C8677B3
3D491498
3C06C763
3E1109DF
