3E8FBA4F
BDFF8AE7
3E0F7C6D
3E1CCF43
3E3AB57E
BE42BDEF
3E9C54A8
3CBF1EDC
BA19B6C
BE9E466E
BD46C219
3E8BD699
3D44B6AA
BE330CC9
3EA44B8E
BE3DE1BB
BEA7AA32
3E60523E
BE972DEC
3D8B3632
3E6F1A28
BE188092
BE9CECFF
3E86D8ED
3EAF8F1D
BDF1FCF1
3E032128
3E034389
BD92E442
3E48007C
BE8D9F6E
BD62FCB4
BE244237
3E785D49
BE2F3A49
BE3EE005
3D52A109
BDB5BE7E
BEAC5265
3E04FB29
BE734F58
3EA9358B
3E108493
3D03FF13
3E094F95
3DE71A20
BD8F9D6D
3E1D6A22
3D6C3809
BD0E1995
3D6FCBFD
BE849561
3EA3C5DF
3EAD298E
BDB532CF
BE598CEA
BE97167F
BEA6B3E0
BDEB9932
BD9DC9CC
BCBB6F06
3E0F17B7
BEA37101
BDA22281
3E2C0E28
3D86DAAE
3D90135C
3E9B90E8
BEB20C97
3E4FFEB5
BDA11F21
BE2D330A
3E2C9BD4
BE777B7B
BE4AC840
3E17DFA0
BD1C3E7F
BE7D2F72
BE9A2D95
2ECE590F
BE4C983D
BDD1239D
3DE7465C
3EBAB544
BE8D5274
3E9E98E1
3DFC651A
3E421DCC
3D38468F
BE4BF425
BD910877
BD90BF26
BEB5FE91
BD13F37B
BE1D6340
BE406072
3E979113
BC2DFC69
3EA52E2A
3E71D678
BE9B2694
3CF37953
3E0F4ABD
3E0F29FC
3E6B3C1D
3E57130B
3DFE20B8
BE71AD69
BD2C3FE9
2ECAED74
3DF9D835
BDE61264
3D895CB8
3D9E75B3
3E7E11E9
3D84007F
3DFF8B8A
BECED514
BE541141
3E2D2FD2
3EA7CFAC
BE06C990
BD34F8C8
3E3C30D0
BE38BA43
3E9EFB64
BDA322EF
3E90EA1D
3CAAE06B
BE401B17
BE8F0BF8
3DA5C85C
3CDA8DCF
BEBCCD46
BC555AB7
3E78FB9D
BDA737F3
3EA91096
BD26B4F8
1DF0440E
BE0959AA
3E20223C
BE90FBAD
BE944665
BD812A7C
3DAACEFC
3EAC8325
BE494F99
3E0D74AB
BE244486
2ED902C8
BE862487
BCE5C6D4
3DED1299
BDDFF78C
BDBD14B6
3E937B8E
BE7D82A6
BDDD6DB7
BD3A0077
3E82CDD9
BE740CAD
3E067ACC
BD929812
BE92C26B
5DE8223B
3E48F480
BE358940
3E81F5F9
BE4CF71A
3ECBB88F
BDA80E0E
3E4C72CB
BEA707AD
3DF4E4E0
BC242BD7
BE6AFB61
BE87A34D
3CC4FA9B
BE594BE0
BCC5AAE3
BDEB8172
3D2FB6B2
BEAFA2C8
BE86015F
BDF3B62E
3EB3D7B8
BE86FF8D
3EBDC3D0
3DE150DE
3E3BC875
BE8CC4C3
BE64A80F
BE994B79
3DA9FE7D
3EA98FA6
3E68FB2B
BD94E5A8
BDA37D83
3E90F07F
BE22168B
BE5DE1FB
3E26D0D4
3D5AB22A
3E9C103D
BEC16E18
BD77FA79
BE63A03C
3E3E4A33
3D9DC8AC
3DF79B41
3DF7970C
3EA390A6
BC1BDB10
BE3D0B6D
BEA0D234
BE859A73
BDB6AC76
BE71D8EE
3E41EB27
3E6873B1
BD80CECC
BE9C314D
BE9B51C3
3E5FC6E0
BEB553CE
3E4680B0
3E665EDB
3EAB9D13
3C93AD34
BE63AF60
BDA67467
BEA81FB2
3E6E76BC
1DC9A604
3D05AB4E
BE493958
3DA814AB
3D3EE2FB
BE3139A0
3D9AAD33
BEA3A2FE
3D39FF68
BDC736CC
3EB575BC
BE861443
BE45A552
3DAF33CF
BEA00C2C
3EA2EE70
BE6FD609
BE6A9931
BDD00E93
3CB8BEE7
BDF38AD0
3DC92684
3EB44C15
BE6144FC
BDFD75C3
3CC2F623
BDD11563
3E53B8C6
BE209ECB
BD5CD6B9
3D854731
3E166174
3D95FD58
3E21FFAD
3CC3B014
3E31D503
3DCB9566
BE8911D7
3E2B3072
BE4A1F80
3E1EB802
BD0A810F
3C303FEC
BE1896ED
3E926DE1
3C5E2BA5
BEB4103D
3E7DFB33
3C01DA1A
3E0511AE
BE7559EA
BE8C0031
3E7E36B0
BDD57B85
3DD69F2E
BE69A10E
3D8E1BE9
BE48D671
BE3882C9
BC4E0102
BE93B43A
3CD7211C
3E66BF85
3E9B49D2
5DF507BA
3E7D4B4C
BE851AE7
3E06DCD2
3E3DBB59
BE443C9D
3D7C9D06
3DECCBBF
3E11A6E7
3E0CD009
3D68A022
BE3483DE
BE5EF621
3E7CFCE8
BD13AE03
BE95C6C7
3E67F3D9
BE86DFC9
3E5D0A30
BE842D42
BCCD9F33
3E386BFE
BE495EFA
0ECC987A
BE9F9059
3C4A1AE0
3C6814DC
BE8AF817
BE57DFF2
3D91B93F
BE0FA127
3E6609C7
3E84A87A
BE70E809
1DC11F5E
BE2B7589
3E8A41F0
BE55BE3E
3E93720B
1DCB7572
BE356259
3DF71AEF
BE816656
BE82CFF4
BE96447F
3DB65B08
3EA78EF7
3E7ABC83
3E663655
3E7A1260
BCE6B0B7
BE3EA63D
3E8F5B9A
3D2A91EC
3E203CBF
BEC7C302
07507069
3E9720E6
3E05EFB3
3E98CF00
BDCCBDDC
BDAC59EE
BE114E9B
BE5B71C7
3E9BC6D0
3E93B6CF
BE184FBD
BEAE0B71
3DE68216
3D399074
BE8BE8F6
BE953F93
BC215B5F
3DC765C5
BE2F0684
BE16C4D9
BD2494D7
BEA0945D
BD174667
BE80C054
3E5F6B4C
BEAE3A38
3E669944
BE4BC261
3CCC420A
3E1B0D3E
BE71943E
3D4A0F24
BE07EDE2
0ED143DA
3D8C4A6A
3D16A49C
BCE321D3
BE88C0D1
3EACF9E9
3D8B102F
3E67E65C
BE52B26B
3EB72107
BE14F7BB
5DD52C85
BDAF5B20
BE38AD5C
3E9A86A1
3D9498E3
3E68695A
3E07E280
BE9741EF
3E02D9F1
BE01AD4F
3E1A4431
3D9517D8
3DDC91B7
BE004E07
3E655DCC
3EC435F3
3E710105
3EBCC430
BDA7C7F3
BE6DB7F1
BE55543A
3E3CE524
3D219226
3EA9BC84
BEB7301E
BCD694C2
1DF774E3
3E867C4E
3D8067C2
BE84C4B1
3E69337E
3DCD039E
3E5C7308
3E073CD1
BE0B292D
BE36DA38
BDA052EE
3C9FFFF5
3EB047AC
3D9261E6
BD8206AE
3D896378
3D8C1447
3E963656
BE4867E9
BE4490F2
BD4EE999
3E926277
3E8F5CFD
BDE45384
BCE22642
BE827FB2
3E755969
3E36951E
3E830233
BDCF5BF1
1DC74086
3E04140C
BC727C91
3C74ABE9
BE52B142
BE9292FC
3E248C43
BE9ED385
BEAFABE9
3E757182
3E58F898
3EB1DF03
BDBD02F1
BE9DE916
3E9F0F5B
3DEA27F3
3EA3BDAE
BE7FCEF1
3E00E7F7
BE1193A9
3DB56E1E
BDF0575E
3E72FC4A
BE0CFF7A
BE0DA046
BEC1C6F8
3C816AD6
BE4123CD
3DD196B4
BE5AFA33
BDEF55C4
BE90E58F
BDE09DCE
3E64FC65
3E7C1471
3EDC4042
0756DDA9
BC39BB27
BDDD4AFC
3DA2B627
3E533811
3D010C0C
3E752FF6
3E8D5DE3
BE91AB8C
BD54C1D1
BE804163
BD924F08
BE9B4491
BE73744D
3ED30776
3DEB7015
BE8302D2
3DF29202
3E3435F1
3DAC6086
3D73F1A0
3E7A7DF0
3E8C5438
BC01019A
BE648EA0
BD9F84BA
3E9654E9
BE3600BD
BE8FF83B
BE943F21
3D5550AA
BE3947B4
BE80A2B6
BD515AA8
3E9E5D7C
3E9859EB
3E334A2B
3E3CCC92
BDAB736C
3E49D34E
3D87A970
BD7258DE
3E6FB5D4
BCB36FBD
3DBB862B
3E0E7CB3
3CB068DE
BE86CCEB
BCA802A9
0EC98919
3DE57CD1
BDAA02C4
BC73D7A5
3E9DA512
3C5B3A36
BE98D306
3E168D34
3DA6E823
3D71C9E5
3E4081EC
BE8A58CA
3E6B6128
BE66D93C
BE79FC9E
3A3EF3B
3EA049FF
3E875454
BEA41E58
BE4AD956
3E59D5AB
3E769593
BE9F69D6
3D429DB3
3E460DC0
3E73391F
BE04F81B
BC9555AB
3E9B0223
BDD6DB85
3D1FF0E2
BE6E4DCB
BE201B46
BD6C8EE1
3DBCE12B
BE71093B
BE51112B
BCEDDDED
3D44E89E
3E3E7CE3
3E0304F6
BEC19E4F
3E5350A3
BE38728F
BD8D2C7B
3EAB9B15
BE12A3B6
3DA335F9
BEA1B317
3ED937EA
BE88C731
3E8B0564
3DFD353E
3E831877
3E8667AB
BE18D5E3
3E4D7C1F
3E919D9A
BE9639CB
BE206575
BD3A09D3
3DEE2CD0
BDECB77E
3D241589
3DD06004
3E1F390F
BEA4C7AC
BDC9F875
3EDA8E91
BE773665
BE36A338
3E3F2DC1
3E000F5F
3EAED556
BD4BF0D4
3C4AD5A0
BEA35A33
BE95BACD
BE67F0A1
BDE7E137
3E4F60BD
3E8BE3C7
3E2C7278
BD159663
3DBB5E9D
BD9F36AC
3EBBFFC4
BE4F1E76
3E8BD6A2
BCEADFDC
BD57FA14
3CB084F5
3E223090
BDFB4492
BDDD0F97
3E4F2F5E
BE8E2A7E
BE2BF49C
BDB962F5
3CE34956
3EAFEC76
3D5642D5
BEBBE205
BE45E853
3D57F37A
BE8237B2
3EC00E36
BE2933A8
BD98AC1A
3DF31830
BE1087A4
BE5140BB
3DC04568
BE03B77E
BD5D2AB4
3DD5EE89
BE07485E
BCA828AF
BE8E9894
BE07CE4E
BE7C75ED
3E8087A9
BE3849CF
BEB6CAEC
3E8D0F38
3E400720
3E4949D4
BDBC89FB
3E31BB85
3D800FAE
3E5BE45C
BE8138D6
BDAFC180
3E904C58
3D26BE84
3E54D19B
3E5DC012
BE4C3616
3D98CCD6
BE6401F8
BE56B256
1DEE07F6
BD1E4ACC
BE003F9B
3E17107A
BD83C7C9
BDC5887A
BDE156B9
3C364589
3D6EAD0C
3E6B3B81
3E6B5A96
BE6DC789
BE24F3BD
3E8D660B
BE1CEC35
3ED4B55A
3E99F15B
BCF55D9D
BE447B70
BDBA390A
BE24D092
3E66876F
3E300A11
BEAF0C20
3DB5D519
BE205D32
3E4DFFD9
3E0AFC86
3DF04764
BD9AE3A9
3E7D303A
3C7B7D23
3E8B69C9
3D2968D2
BE7E6C1C
3E63F5EF
3EA8AFD2
3D2EE0C0
BE76681E
3DEDE079
3D644638
BE97BFD2
BE41D4C4
BEBCD38F
3EB23DFE
3E7F63EA
3D74A9F9
BE60AB5E
3DD76DBC
BEB44A49
BE205D33
3E10EFD1
BE5468AF
3E9211B3
3E10441E
BC981713
BD8D8DE1
3E1A4693
BE782443
BE230C76
3D9D2C6C
3E8551B8
3E24F208
BE1315F2
3E8F7AB2
3E0C5F52
3E14363E
BE57BAAC
BE67F4C4
3E9FD89A
3EB3671C
BE6440C5
3E7B8C77
3E617AF8
BE90C6C8
3DA89047
BE37152E
BE63D216
3E487293
BE9C7578
3E2977FD
3E9677B6
BE6540D3
BC4522AA
BE9FF810
3E5D3F69
BE89E74D
BD0B2079
3EA76B69
BE780BE5
BE41F46B
BCE10006
3EBA5145
BE8D9C1E
3E05EFE3
0ED8B3B9
3DA6D911
3E1AABF3
3E298462
BEAC0243
3E8D14CD
3D07C7B0
5DDBB9A5
3DBF74CE
BE599543
3DAB8641
BE89819D
3E8F53E6
BE29B0BA
BEA5A290
BE5BCF19
BE952E90
BE9B1293
BE3D44C6
BE48189E
3E69DBA2
BDE0D496
3D60EF19
3E054CA8
3D92B897
BE1BDEB8
BDC82134
BEAC11F6
3C27F17E
BDBA9718
3E7234DF
BE7F071F
BE47CD57
3E0F246E
175F07E3
3E54E898
3E2EE558
3E557F2B
3DFD3DDD
3E523942
BE905CE0
3D97EE50
BE5A6ABF
5DE09897
BE7902C4
BE9AEE86
BE8E3A37
3DAC4822
3DB560B4
3E9DF8F1
3E066EF9
3D96BF67
3E614616
3E2EB34C
3C9F8100
BE6B627B
3E429EC8
BE467B77
3E91D8AA
3DB89EC2
BE380AEC
BEAF1A12
3CB82A5E
BE15B459
3E101A3E
